<unk>	0
<s>	0
</s>	0
[PAD]	0
[CLS]	0
[SEP]	0
[MASK]	0
、	-3.00936
。	-3.28261
▁	-3.52378
の	-3.65896
は	-4.00699
が	-4.361
・	-4.43092
)	-4.47007
(	-4.54356
年	-4.57164
に	-4.67272
を	-4.69082
で	-4.87051
と	-4.95009
」	-5.22418
月	-5.30223
「	-5.3033
1	-5.66581
2	-5.68942
や	-5.70243
である	-5.73327
から	-5.7383
した	-5.88583
も	-5.89796
3	-5.90056
し	-5.9155
日	-5.94525
として	-6.07004
する	-6.15258
』	-6.1617
4	-6.17101
では	-6.19521
『	-6.25007
た	-6.41316
5	-6.44649
には	-6.4924
6	-6.588
年に	-6.60457
など	-6.62689
7	-6.68187
10	-6.68233
▁また	-6.69337
という	-6.74463
8	-6.7463
▁-	-6.81139
9	-6.82309
された	-6.82551
している	-6.84248
して	-6.85768
る	-6.86176
な	-6.86794
て	-6.90079
第	-6.90109
ス	-6.92001
-	-6.93156
大	-6.93213
人	-6.95185
"	-6.95893
その	-6.96586
12	-6.98648
日に	-6.99089
ている	-6.99693
市	-7.06167
11	-7.07473
による	-7.07876
となった	-7.09577
によって	-7.09723
により	-7.12684
であり	-7.13069
:	-7.15049
▁この	-7.17339
であった	-7.17538
され	-7.19147
この	-7.21412
s	-7.23361
中	-7.25513
,	-7.27491
山	-7.2801
m	-7.32201
.	-7.32555
町	-7.35238
ア	-7.3554
となる	-7.37555
へ	-7.37858
がある	-7.37875
一	-7.38276
、「	-7.38469
より	-7.39266
か	-7.41057
本	-7.41428
ため	-7.41941
される	-7.42436
日本	-7.43245
ド	-7.43441
り	-7.43503
▁しかし	-7.44356
ト	-7.4529
ク	-7.45571
への	-7.46238
a	-7.46366
回	-7.48003
後	-7.48721
まで	-7.4886
20	-7.4963
ズ	-7.49822
昭和	-7.50569
上	-7.50852
ラ	-7.5186
国	-7.53344
名	-7.54854
長	-7.5502
15	-7.55317
▁(	-7.55806
などの	-7.56927
だった	-7.57094
駅	-7.57549
新	-7.57593
ていた	-7.57739
において	-7.59481
部	-7.60451
月に	-7.60954
い	-7.6259
子	-7.6284
16	-7.63061
川	-7.63318
的な	-7.64261
していた	-7.64519
されている	-7.64861
線	-7.65037
17	-7.65212
にも	-7.66542
▁『	-7.66754
郡	-7.68626
/	-7.68852
30	-7.69337
性	-7.70361
18	-7.70703
および	-7.71615
ナ	-7.71721
リ	-7.71957
者	-7.72472
カ	-7.72917
家	-7.73083
高	-7.73253
法	-7.73875
分	-7.74667
でも	-7.74997
ら	-7.75832
島	-7.76222
元	-7.76551
マ	-7.76753
号	-7.76982
となり	-7.77005
的	-7.7713
同	-7.77441
道	-7.78094
14	-7.78098
水	-7.78587
田	-7.7877
13	-7.80468
にある	-7.80661
▁なお	-7.81469
』(	-7.81677
タ	-7.81891
三	-7.82152
年には	-7.82492
東	-7.82894
b	-7.83111
戦	-7.84326
化	-7.84747
型	-7.84778
西	-7.85114
ル	-7.85116
時	-7.85853
数	-7.86107
コ	-7.86343
大学	-7.86562
下	-7.86615
における	-7.88267
c	-7.88272
村	-7.88431
小	-7.88548
デ	-7.88839
平成	-7.89314
南	-7.89601
つ	-7.89894
ム	-7.9063
内	-7.90814
く	-7.92186
生	-7.92742
バ	-7.9326
約	-7.93294
地	-7.93438
州	-7.93497
った	-7.93521
ノ	-7.93704
き	-7.93963
▁その後	-7.94071
位	-7.95391
み	-7.95577
となっている	-7.96185
とは	-7.96293
サ	-7.96859
f	-7.97093
フ	-7.97157
会	-7.97574
ダ	-7.97996
t	-7.98108
レ	-7.9849
日本の	-7.98684
前	-7.98818
ており	-7.99246
年から	-7.99698
お	-8.0002
d	-8.00034
=	-8.0025
年の	-8.00373
手	-8.00533
北	-8.01191
等	-8.01519
19	-8.01941
25	-8.02226
こと	-8.0228
式	-8.02295
系	-8.02413
ロ	-8.04185
オ	-8.04565
エ	-8.06487
▁「	-8.06775
城	-8.0743
形	-8.07872
東京	-8.08123
マン	-8.08848
また	-8.09369
にて	-8.0954
神	-8.10003
シ	-8.10493
映画	-8.10578
後に	-8.10617
王	-8.10724
軍	-8.11489
野	-8.11613
24	-8.11764
イ	-8.11782
文	-8.11816
金	-8.11835
21	-8.11862
ジ	-8.11913
e	-8.11991
用	-8.12643
について	-8.13223
作品	-8.14016
二	-8.15593
キ	-8.16036
代	-8.16142
p	-8.16212
す	-8.16355
勝	-8.16598
原	-8.16775
行	-8.1681
全	-8.17054
があり	-8.17226
放送	-8.17251
力	-8.17318
との	-8.17424
n	-8.17778
リー	-8.17811
語	-8.17958
g	-8.18587
チ	-8.18682
社	-8.18883
ない	-8.18965
正	-8.19068
物	-8.19378
木	-8.19428
x	-8.19458
ン	-8.19961
石	-8.20165
ガ	-8.20165
ザ	-8.20512
平	-8.20538
光	-8.20721
地域	-8.2112
▁"	-8.21248
22	-8.215
所	-8.21509
」(	-8.21587
23	-8.21848
現	-8.21934
ニ	-8.22243
機	-8.22315
ディ	-8.22909
ティ	-8.23213
海	-8.23482
世界	-8.2351
区	-8.23668
目	-8.24377
車	-8.24387
寺	-8.24967
人の	-8.25118
う	-8.25202
いた	-8.25338
とする	-8.26344
見	-8.26481
外	-8.2678
学	-8.26785
点	-8.26936
だ	-8.27287
こ	-8.27363
ネ	-8.27462
r	-8.2772
ミ	-8.27725
ツ	-8.2814
k	-8.28245
万	-8.28295
26	-8.28341
28	-8.28556
事	-8.28651
のみ	-8.29177
世	-8.29346
及び	-8.2961
プ	-8.29883
27	-8.29943
和	-8.30414
活動	-8.30475
作	-8.30761
テ	-8.30892
つの	-8.30928
義	-8.3131
h	-8.31376
県	-8.31487
さ	-8.31864
書	-8.32002
シリーズ	-8.323
って	-8.32337
セ	-8.32392
」「	-8.32429
になった	-8.3256
旧	-8.3261
グ	-8.3271
に対して	-8.32844
公	-8.33166
版	-8.33312
ゲーム	-8.33383
明治	-8.33541
ブ	-8.33558
出	-8.33727
とともに	-8.33799
できる	-8.33851
立	-8.34258
とも	-8.3441
▁その	-8.35002
パ	-8.35362
各	-8.35464
面	-8.35699
29	-8.35767
チーム	-8.35907
時間	-8.36336
ビ	-8.36552
j	-8.36681
になる	-8.36768
度	-8.36897
明	-8.37141
局	-8.37499
イン	-8.37583
を持つ	-8.37828
現在の	-8.37882
v	-8.38123
もの	-8.38375
両	-8.38711
重	-8.39911
シュ	-8.40112
間	-8.40248
ハ	-8.41115
体	-8.41219
ある	-8.41228
無	-8.41244
と呼ばれる	-8.41363
馬	-8.41526
研究	-8.41775
曲	-8.4192
、『	-8.42135
期	-8.42216
w	-8.42439
l	-8.42538
と共に	-8.42669
i	-8.42845
バー	-8.43817
番組	-8.44089
については	-8.44109
鉄道	-8.44173
多くの	-8.44583
モ	-8.44604
美	-8.44868
メ	-8.44889
頭	-8.45377
すると	-8.45454
事業	-8.45566
アメリカ	-8.45907
風	-8.46088
y	-8.46175
での	-8.46201
ウ	-8.46406
カー	-8.46651
ケ	-8.46792
当時	-8.47005
50	-8.47025
種	-8.47948
バス	-8.4816
に対する	-8.48473
話	-8.48554
cm	-8.48877
音楽	-8.49181
国際	-8.49304
または	-8.49445
白	-8.49558
文化	-8.49963
口	-8.50161
ゴ	-8.50313
級	-8.50365
天	-8.50461
ま	-8.50823
船	-8.50859
橋	-8.50899
100	-8.51171
開発	-8.51207
谷	-8.51328
通	-8.51643
を行う	-8.523
賞	-8.52373
室	-8.52448
40	-8.5245
km	-8.52565
からの	-8.52645
不	-8.52655
直	-8.52724
宮	-8.52752
▁これは	-8.53008
リーグ	-8.53165
教育	-8.5325
着	-8.53269
場	-8.53373
プロ	-8.5338
地方	-8.53663
問題	-8.53732
地区	-8.5374
しており	-8.53743
日の	-8.53781
学校	-8.5414
同年	-8.54289
31	-8.54402
")	-8.54481
的に	-8.54512
トン	-8.54571
他の	-8.54643
門	-8.54748
o	-8.55014
監督	-8.55049
安	-8.55676
ラン	-8.55833
サン	-8.56023
選手	-8.56075
氏	-8.56358
ター	-8.56366
台	-8.56736
ボ	-8.56908
フランス	-8.5715
気	-8.57221
アルバム	-8.57227
さらに	-8.57574
といった	-8.57856
方	-8.58007
年間	-8.58362
テレビ	-8.58696
アル	-8.58786
科	-8.5884
成	-8.58961
システム	-8.59053
ヤ	-8.59276
ラー	-8.59466
番	-8.59512
グループ	-8.596
代表	-8.59604
流	-8.59722
されていた	-8.60002
に関する	-8.6007
院	-8.60652
後の	-8.61002
屋	-8.613
中国	-8.61516
め	-8.61625
ように	-8.61668
のため	-8.61673
アン	-8.61969
都市	-8.62125
色	-8.62323
初	-8.62413
事件	-8.62417
論	-8.62521
ことから	-8.62576
があった	-8.62642
次	-8.62648
心	-8.62732
ドイツ	-8.62748
▁同年	-8.62769
としては	-8.62884
ために	-8.62944
計画	-8.63227
音	-8.63479
信	-8.63603
主	-8.63812
ず	-8.64207
別	-8.64393
コン	-8.64746
ロー	-8.64816
シー	-8.64909
ヒ	-8.65017
館	-8.65696
情報	-8.66211
スト	-8.66632
ながら	-8.66907
～	-8.67015
▁ただし	-8.67021
施設	-8.67733
特に	-8.67749
日から	-8.67949
花	-8.68176
u	-8.68508
巻	-8.68543
組織	-8.68743
試合	-8.68816
朝	-8.689
先	-8.68995
制	-8.69093
ものの	-8.69171
運動	-8.69453
!	-8.69485
'	-8.6981
技術	-8.69865
いる	-8.70056
政	-8.70102
権	-8.70118
所属	-8.70207
出身	-8.70278
られた	-8.70602
ソ	-8.71126
もある	-8.71348
大会	-8.71402
ポ	-8.71535
ー	-8.71694
のために	-8.72078
リン	-8.7229
歳	-8.72404
ニー	-8.72636
む	-8.72647
真	-8.72768
関係	-8.72951
丸	-8.7306
スター	-8.73198
それ	-8.73635
社会	-8.73717
店	-8.73734
官	-8.73904
だが	-8.74329
センター	-8.74469
とされる	-8.7453
を経て	-8.74933
シーズン	-8.74944
井	-8.75023
時に	-8.75074
女性	-8.75204
座	-8.75344
史	-8.7538
ほか	-8.75686
▁第	-8.75697
ことを	-8.75718
▁さらに	-8.75958
会社	-8.76453
させた	-8.76486
ではなく	-8.76812
っている	-8.76947
マー	-8.7741
愛	-8.77413
武	-8.77514
派	-8.77567
ワ	-8.77655
を行った	-8.77868
星	-8.77896
五	-8.77952
清	-8.77956
戦争	-8.78041
総	-8.78218
有	-8.78359
場合	-8.7846
ベ	-8.78462
▁そして	-8.78485
株式会社	-8.78544
ほど	-8.7871
発	-8.78751
経済	-8.78818
▁2010	-8.78882
古	-8.78948
定	-8.79023
役	-8.79124
とした	-8.79259
女	-8.79293
兵	-8.79329
ピ	-8.79716
あるいは	-8.80005
円	-8.80048
多	-8.80074
対	-8.80118
四	-8.8038
を受け	-8.80399
状態	-8.80427
大きな	-8.80555
当時の	-8.8082
エル	-8.80868
歌	-8.81018
じ	-8.81277
ことで	-8.81398
させる	-8.81672
男	-8.82128
60	-8.82233
中央	-8.82334
よりも	-8.824
組	-8.82489
その後	-8.82513
え	-8.8278
大阪	-8.82794
年まで	-8.82892
のような	-8.82942
久	-8.82951
機能	-8.82967
吉	-8.8305
クラブ	-8.83355
攻撃	-8.83468
英	-8.835
月には	-8.83757
を含む	-8.83847
領	-8.84185
品	-8.84316
へと	-8.84338
イギリス	-8.84384
管理	-8.84443
他	-8.84695
ナー	-8.84853
側	-8.84933
ことが	-8.85278
すること	-8.8542
黒	-8.85735
のうち	-8.85836
記録	-8.85891
アー	-8.8631
)」	-8.86315
ち	-8.86391
民	-8.8651
尾	-8.86728
よう	-8.87003
道路	-8.87041
企業	-8.87171
時代	-8.87409
宗	-8.87601
群	-8.87935
サービス	-8.87983
八	-8.88102
▁2011	-8.8812
実	-8.88128
▁of	-8.88298
全国	-8.88318
類	-8.88358
艦	-8.88407
したが	-8.88422
校	-8.88545
〜	-8.88683
入	-8.88826
ギ	-8.89066
▁2009	-8.891
江	-8.89219
様々な	-8.89431
治	-8.89431
雄	-8.89492
日には	-8.8959
ベル	-8.89685
こう	-8.89843
▁2012	-8.89907
モデル	-8.89985
政府	-8.90135
▁2008	-8.90366
非	-8.90514
ビル	-8.90568
空	-8.90701
▁the	-8.90843
国家	-8.909
ソン	-8.91528
条	-8.91553
あ	-8.91569
わ	-8.91759
ヴィ	-8.91807
なかった	-8.9181
林	-8.91939
の中で	-8.91951
々	-8.91993
敵	-8.92066
生活	-8.92099
女子	-8.92693
▁2014	-8.92765
協会	-8.92814
ホ	-8.92818
ダー	-8.93364
販売	-8.93439
例	-8.93473
ペ	-8.93523
松	-8.93609
一部	-8.93699
▁2007	-8.93758
食	-8.93769
シングル	-8.93786
カード	-8.93869
ファ	-8.93965
ゲ	-8.93975
御	-8.94133
米	-8.94335
構造	-8.94382
になっている	-8.94388
人が	-8.94458
団体	-8.94565
バンド	-8.94576
においては	-8.94593
んだ	-8.94709
▁2013	-8.94938
量	-8.95129
80	-8.95224
親	-8.95401
千	-8.95566
▁2015	-8.95784
ジャ	-8.95809
足	-8.95889
記	-8.95971
党	-8.96248
中に	-8.96284
通り	-8.9632
調査	-8.96373
であったが	-8.9639
ゼ	-8.96484
中学校	-8.96784
ものである	-8.9691
相	-8.97046
高等学校	-8.97265
シャ	-8.97287
mm	-8.97294
▁2016	-8.97317
以上	-8.974
波	-8.97511
車両	-8.97569
再び	-8.9762
&	-8.98148
夫	-8.98181
レイ	-8.98246
合	-8.98335
を受けた	-8.98442
沢	-8.98579
カル	-8.9878
港	-8.98782
士	-8.98918
春	-8.99072
にあった	-8.99126
さん	-8.99281
のように	-8.99329
z	-8.99412
ファン	-8.9947
環境	-8.99551
連	-8.99636
▁2017	-8.99714
the	-8.9974
知	-8.99797
岩	-8.9998
上の	-9.00028
高校	-9.00396
されており	-9.00477
場所	-9.0053
リング	-9.00797
電	-9.00972
ば	-9.01136
タイ	-9.01187
制度	-9.0124
スポーツ	-9.01293
fc	-9.0136
生産	-9.01471
小学校	-9.0181
員	-9.01953
0	-9.01965
表	-9.01975
器	-9.02157
左	-9.02193
説	-9.02316
ホーム	-9.02557
▁2006	-9.02705
初の	-9.02734
レース	-9.02804
業	-9.02919
根	-9.03143
”	-9.03155
教会	-9.03329
土	-9.03456
海軍	-9.03606
里	-9.03639
藩	-9.03647
字	-9.03763
角	-9.03983
赤	-9.04116
ロン	-9.04182
右	-9.04277
広	-9.044
になり	-9.04441
太	-9.04454
ジョン	-9.04527
新しい	-9.04579
されて	-9.04664
特別	-9.04744
発売	-9.04869
制作	-9.04901
航空	-9.04966
戦闘	-9.04974
隊	-9.04996
それぞれ	-9.05016
優勝	-9.05233
之	-9.05315
葉	-9.0538
職	-9.05529
死	-9.05771
身	-9.05842
師	-9.05861
出場	-9.05896
ヴァ	-9.05908
よ	-9.06037
再	-9.06059
オー	-9.06092
ぎ	-9.06105
弾	-9.06171
津	-9.06316
作戦	-9.06526
を務めた	-9.06601
リア	-9.06657
同じ	-9.06679
感	-9.0671
中の	-9.06761
レン	-9.06771
などで	-9.07018
良	-9.07166
基	-9.07167
人間	-9.07168
使用	-9.07296
ガー	-9.07398
最初の	-9.0741
そして	-9.07519
のある	-9.07529
建設	-9.07547
母	-9.07703
半	-9.07736
路線	-9.07753
銀行	-9.07791
父	-9.078
総合	-9.0787
利	-9.08011
忠	-9.08139
都	-9.08199
大正	-9.08275
エン	-9.08461
火	-9.08767
ような	-9.08934
▁そのため	-9.08946
ランド	-9.08966
徳	-9.09155
これは	-9.09337
製	-9.0934
第一	-9.09356
団	-9.09813
>	-9.10048
アメリカ合衆国	-9.10398
路	-9.10426
を中心に	-9.10456
産業	-9.10686
永	-9.10713
声	-9.10748
▁2	-9.10847
編成	-9.1085
横	-9.10889
ロシア	-9.1092
設計	-9.10924
を行い	-9.10958
守	-9.1123
今	-9.11244
ること	-9.1127
達	-9.11287
委員会	-9.11575
これ	-9.11667
しない	-9.11689
当	-9.11867
イベント	-9.11914
戸	-9.12124
ヘ	-9.12137
させ	-9.12154
熱	-9.12186
キャラクター	-9.12189
主に	-9.12256
ご	-9.12268
70	-9.1231
機関	-9.12354
状況	-9.12363
ところ	-9.12367
一般	-9.12413
聖	-9.12448
公園	-9.12461
っていた	-9.12625
教	-9.12631
翌	-9.12772
に対し	-9.12792
部隊	-9.12928
だけ	-9.12974
誌	-9.12996
月から	-9.13074
人物	-9.13327
ガン	-9.13342
ハイ	-9.13369
サー	-9.13482
政治	-9.13525
jr	-9.13591
湖	-9.13594
集	-9.13708
等の	-9.13781
ブル	-9.13846
内の	-9.13863
独立	-9.13924
鉄	-9.13936
堂	-9.13947
cd	-9.14006
イタリア	-9.14012
以降	-9.14052
の一部	-9.1424
企画	-9.14508
によれば	-9.14513
族	-9.14648
スーパー	-9.14837
年度	-9.14894
ヌ	-9.14919
デザイン	-9.14922
フィ	-9.15041
神社	-9.15077
ヨーロッパ	-9.15133
自	-9.1517
エンジン	-9.15199
カン	-9.15217
日まで	-9.15257
契約	-9.15289
などが	-9.15348
パー	-9.15438
れ	-9.15498
2000	-9.15674
とし	-9.15825
」、「	-9.15825
としている	-9.15826
ね	-9.16013
▁2005	-9.16042
200	-9.16131
出身の	-9.1615
自動車	-9.16207
デビュー	-9.16356
シン	-9.16552
北海道	-9.16583
ではない	-9.16653
章	-9.16753
節	-9.16876
京都	-9.16897
st	-9.16954
に位置する	-9.17117
ビー	-9.17332
試験	-9.1744
保	-9.179
交通	-9.1817
森	-9.18198
工場	-9.18226
th	-9.18321
チャ	-9.18627
タン	-9.1867
ッ	-9.18672
||	-9.1868
からは	-9.18689
メンバー	-9.18691
経	-9.18762
できない	-9.18952
ic	-9.1896
▁a	-9.18961
ドラマ	-9.19016
板	-9.19219
利用	-9.19239
al	-9.19277
ラジオ	-9.19303
属	-9.19338
未	-9.19406
はこの	-9.1942
時の	-9.19424
文字	-9.19441
そ	-9.19447
バン	-9.19469
会議	-9.1969
図	-9.19709
35	-9.19713
能力	-9.19741
最も	-9.19783
生まれ	-9.19786
六	-9.19789
前に	-9.19829
モン	-9.19864
太郎	-9.20174
たち	-9.20206
であるが	-9.20252
陸軍	-9.20315
紙	-9.20489
によると	-9.20621
進	-9.20646
ぶ	-9.20733
▁一方	-9.20756
表現	-9.20876
条件	-9.20891
最大	-9.20963
市の	-9.21177
取り	-9.21394
たい	-9.21425
英語	-9.21597
せ	-9.21599
られる	-9.21705
ジェ	-9.21726
言語	-9.21745
反	-9.21758
▁日本	-9.21771
そう	-9.21808
薬	-9.21824
効果	-9.21853
ことができる	-9.22069
アニメ	-9.22184
宇宙	-9.22351
用の	-9.22355
七	-9.22358
球	-9.22419
と同じ	-9.22458
秒	-9.22522
あり	-9.22533
悪	-9.22621
に伴い	-9.22736
輸送	-9.2276
参加	-9.22811
何	-9.22872
層	-9.23091
省	-9.23102
結果	-9.23184
彼の	-9.23255
状	-9.23266
しか	-9.23282
教授	-9.23384
形式	-9.23463
け	-9.23529
公開	-9.23633
青	-9.23651
政策	-9.23679
部分	-9.23711
マル	-9.23825
工業	-9.23956
個	-9.23991
年代	-9.24098
パン	-9.24099
差	-9.24137
製品	-9.2446
夏	-9.24462
区間	-9.24588
が行われた	-9.24693
南部	-9.24824
通信	-9.24933
45	-9.24966
列車	-9.25005
雑誌	-9.25148
副	-9.25187
経営	-9.2523
夜	-9.25386
製造	-9.25456
帯	-9.25487
界	-9.25493
楽	-9.25519
草	-9.25724
彼は	-9.2581
時代の	-9.26023
小説	-9.26055
超	-9.26074
だったが	-9.26225
物語	-9.26313
ようになった	-9.26574
タイトル	-9.26612
にあたる	-9.26697
崎	-9.26791
ネット	-9.26856
志	-9.27006
来	-9.2701
ロック	-9.27134
ハン	-9.27187
世紀	-9.2722
担当	-9.27322
京	-9.27329
病	-9.27396
戦で	-9.27428
主義	-9.27443
加	-9.27582
命	-9.276
岡	-9.27605
警察	-9.27624
ライブ	-9.2765
画	-9.27769
開催	-9.27889
以来	-9.2789
装置	-9.27894
ドル	-9.2792
満	-9.27926
調	-9.27957
自然	-9.28028
諸	-9.28084
500	-9.28147
段	-9.28232
90	-9.28379
デン	-9.28432
48	-9.2861
以下の	-9.2862
運転	-9.2864
開	-9.2864
アイ	-9.28658
▁2018	-9.28715
質	-9.28719
祭	-9.28761
砲	-9.28777
第二	-9.28816
伝	-9.28945
おり	-9.28952
re	-9.29032
パリ	-9.29109
秀	-9.29111
ルー	-9.29253
が多く	-9.29382
運営	-9.29415
河	-9.29593
("	-9.29676
ひ	-9.29677
ライン	-9.29689
が多い	-9.29773
フル	-9.29774
インド	-9.29802
名は	-9.2984
バル	-9.2991
枠	-9.30094
開始	-9.30156
像	-9.30202
スペイン	-9.30364
坂	-9.30375
データ	-9.30558
骨	-9.30703
フリー	-9.30715
歴史	-9.30749
構成	-9.3079
スタ	-9.30793
龍	-9.30804
以上の	-9.30835
家の	-9.30843
フェ	-9.30871
アジア	-9.30898
以外の	-9.31021
なく	-9.31175
方法	-9.31372
以下	-9.3143
計	-9.31478
変更	-9.31496
自身の	-9.31627
せん	-9.31865
学生	-9.31887
陽	-9.31935
玉	-9.31967
ダム	-9.32
舞台	-9.32012
店舗	-9.32018
病院	-9.32036
us	-9.321
クラス	-9.32241
個人	-9.32444
られ	-9.32553
居	-9.32557
ると	-9.32558
越	-9.32622
国内	-9.32627
の一つ	-9.32795
登録	-9.32855
地球	-9.33039
国道	-9.33072
内容	-9.33123
コー	-9.33124
評価	-9.33198
異	-9.33236
細胞	-9.33376
in	-9.33473
建築	-9.33476
支援	-9.33481
源	-9.3354
現在は	-9.33613
付	-9.3378
行動	-9.33853
ていたが	-9.33865
公演	-9.33889
男性	-9.34053
ジュ	-9.34113
を受けて	-9.34201
設定	-9.34204
▁2004	-9.34278
運用	-9.34315
値	-9.34694
現在	-9.34809
はその	-9.35018
などを	-9.35065
いて	-9.35075
便	-9.35325
血	-9.35336
大統領	-9.3542
ニュー	-9.35445
のための	-9.35504
er	-9.35944
率	-9.35978
樹	-9.3607
工事	-9.36193
蔵	-9.36284
最後の	-9.36358
ハー	-9.36374
政権	-9.36504
増	-9.36555
ライ	-9.36665
こともある	-9.36683
せず	-9.3676
羽	-9.36811
レー	-9.36875
作曲	-9.36886
ta	-9.37047
司	-9.37128
塩	-9.3721
人気	-9.37239
案	-9.37379
系統	-9.37632
キー	-9.37655
to	-9.37692
どう	-9.37745
+	-9.37869
ん	-9.38153
なる	-9.38153
されていない	-9.38176
▁3	-9.38236
ていない	-9.38247
ジー	-9.38284
でもある	-9.38297
階	-9.38336
最高	-9.38403
幸	-9.38521
対応	-9.38522
選挙	-9.38654
ことがある	-9.38669
批判	-9.38736
科学	-9.3877
nhk	-9.38883
九州	-9.39006
条約	-9.39052
br	-9.39087
上で	-9.39176
毛	-9.3928
kg	-9.39291
とされている	-9.39383
入り	-9.39422
藤	-9.39426
q	-9.39438
兼	-9.39619
かつて	-9.39664
32	-9.3973
輪	-9.39777
勝利	-9.39849
郷	-9.39886
部門	-9.39971
低	-9.39984
乗	-9.40012
ステージ	-9.40051
市民	-9.40073
ing	-9.40089
36	-9.40099
設置	-9.40183
38	-9.40219
製作	-9.40245
漫画	-9.4046
跡	-9.40488
%	-9.40558
韓国	-9.40624
妻	-9.40625
新聞	-9.40639
場合は	-9.40641
ツアー	-9.40658
表示	-9.40717
豊	-9.40827
人口	-9.40871
▁m	-9.40875
“	-9.40913
っ	-9.40927
ヴ	-9.4095
彦	-9.41024
産	-9.41028
ポイント	-9.41246
発表	-9.4128
席	-9.41418
営業	-9.41447
万円	-9.41475
スタジオ	-9.41594
自由	-9.41629
編	-9.41643
張	-9.41643
雲	-9.41739
出演	-9.41789
込み	-9.41977
向け	-9.42053
作家	-9.42056
レス	-9.42069
たが	-9.4207
研究所	-9.4209
関	-9.42194
映像	-9.42198
市場	-9.42242
浦	-9.42268
▁特に	-9.42269
2010	-9.42402
家族	-9.4243
ニューヨーク	-9.42479
理	-9.42513
市立	-9.42572
メートル	-9.42575
後は	-9.42655
客	-9.42848
行政	-9.42896
事故	-9.43104
▁同	-9.4311
飛行	-9.43127
▁2000	-9.43132
軍事	-9.43185
海外	-9.43213
助	-9.43456
していたが	-9.43464
ック	-9.43498
強	-9.43533
▁※	-9.4372
整備	-9.43775
ど	-9.4379
ふ	-9.4395
国民	-9.43999
解	-9.44001
ガス	-9.44036
ブラ	-9.44105
かつ	-9.44185
これを	-9.44195
出版	-9.44245
酒	-9.44269
de	-9.44314
芸術	-9.44367
てきた	-9.44401
行為	-9.44414
ローマ	-9.44475
空港	-9.44534
▁これらの	-9.44714
新たな	-9.44738
-1	-9.44751
集団	-9.44784
比	-9.44807
チェ	-9.44808
技	-9.44916
が存在する	-9.44993
十	-9.44998
台湾	-9.45231
漢	-9.45357
としての	-9.45388
トップ	-9.45445
鳥	-9.45499
夢	-9.45658
自分の	-9.45688
作業	-9.4571
重要な	-9.45721
na	-9.45754
湾	-9.45776
高い	-9.45796
敗	-9.45947
料理	-9.46048
予定	-9.46053
ット	-9.46073
香	-9.4609
劇場	-9.46135
横浜	-9.4614
ろ	-9.46162
素	-9.46184
動物	-9.46214
le	-9.46225
仁	-9.46392
管	-9.46665
37	-9.46788
ーン	-9.46815
割	-9.46899
▁彼は	-9.46946
現代	-9.46959
び	-9.47043
ロンドン	-9.47044
トゥ	-9.47075
もあり	-9.47238
年より	-9.4725
撮影	-9.47274
バック	-9.4732
オブ	-9.47333
秋	-9.47336
ダン	-9.47346
までの	-9.47424
取	-9.47551
を見	-9.47618
勢力	-9.47806
搭載	-9.47887
これらの	-9.47953
額	-9.47962
移動	-9.48056
残	-9.48056
勢	-9.4806
系の	-9.48081
渡	-9.48193
瀬	-9.48212
方式	-9.48219
線の	-9.4826
時には	-9.48329
少年	-9.48335
為	-9.48561
人は	-9.48562
トリ	-9.48618
動	-9.48678
終了	-9.48687
隆	-9.48775
ことは	-9.48782
周	-9.48826
33	-9.48834
方面	-9.48958
ザー	-9.48962
好	-9.48979
泉	-9.48998
帝	-9.49012
者の	-9.49072
反応	-9.49075
2008	-9.4916
表記	-9.49161
オリンピック	-9.49189
ホール	-9.49214
キン	-9.49269
処理	-9.49337
合併	-9.49465
極	-9.4947
持ち	-9.49612
隻	-9.49626
を行っている	-9.49638
2009	-9.49639
ほぼ	-9.4966
決定	-9.49685
▁2003	-9.49727
2007	-9.49752
言	-9.49801
ぐ	-9.49815
紀	-9.49952
→	-9.49965
在	-9.50103
ホテル	-9.5025
文学	-9.50293
魚	-9.50331
陣	-9.50345
遠	-9.50398
常	-9.50415
サイト	-9.50461
とき	-9.50491
プロジェクト	-9.50518
ニュース	-9.50548
ユ	-9.50601
電気	-9.50649
電子	-9.50666
自ら	-9.50705
対象	-9.50716
期間	-9.50738
次の	-9.50789
植物	-9.50879
直接	-9.50966
民族	-9.50971
せい	-9.51046
代目	-9.51109
順	-9.51163
程度	-9.51189
元年	-9.51228
洋	-9.51238
』『	-9.51262
商品	-9.51281
王国	-9.51298
体制	-9.51342
将軍	-9.51354
300	-9.51386
走	-9.51478
断	-9.51491
名前	-9.51532
マイ	-9.51533
福	-9.51543
近	-9.51606
内に	-9.51612
卒業	-9.51665
ブランド	-9.51727
にとって	-9.51801
メディア	-9.51847
池	-9.51873
銀	-9.51892
指定	-9.52013
興	-9.52025
かん	-9.52048
演奏	-9.52051
霊	-9.52058
百	-9.52088
統合	-9.52102
トラ	-9.52153
意	-9.52178
持	-9.52222
軍の	-9.52272
雨	-9.5238
初代	-9.52382
エネルギー	-9.52439
縁	-9.52504
頼	-9.52509
▁de	-9.52558
喜	-9.52567
列	-9.52571
統一	-9.52578
34	-9.52692
基準	-9.52746
ヴェ	-9.52749
幅	-9.52753
を持ち	-9.52761
雪	-9.52843
前の	-9.52893
間の	-9.52926
天皇	-9.52956
機構	-9.52979
宿	-9.53005
竹	-9.53025
佐	-9.53067
異なる	-9.53101
もので	-9.5324
ed	-9.53298
オリジナル	-9.53444
クス	-9.53446
会長	-9.53473
コース	-9.53474
訳	-9.53514
理論	-9.5356
学園	-9.53582
軽	-9.53592
するために	-9.53608
単	-9.53614
費	-9.53624
セット	-9.53654
タイム	-9.53701
目的	-9.53754
野球	-9.53778
片	-9.53854
者が	-9.5387
2011	-9.53907
北部	-9.53945
共同	-9.54115
転	-9.54163
写真	-9.54267
にかけて	-9.54377
連続	-9.54505
▁このため	-9.54565
楽曲	-9.54583
記念	-9.54603
していない	-9.54651
39	-9.5466
弘	-9.54812
se	-9.54841
ビデオ	-9.54875
するため	-9.55013
街	-9.55077
裏	-9.55116
艦隊	-9.55121
なら	-9.55122
ma	-9.55221
よく	-9.55262
建	-9.55279
▁4	-9.55322
選	-9.55381
難	-9.55415
平均	-9.55489
仏	-9.55534
全ての	-9.55554
観測	-9.55555
開業	-9.55574
ウィ	-9.55608
園	-9.55617
はない	-9.55655
伊	-9.55713
項	-9.55839
付け	-9.55863
者は	-9.56001
関連	-9.56024
コーナー	-9.56067
競技	-9.56104
令	-9.56108
複数の	-9.5614
経験	-9.56155
絵	-9.56248
能	-9.56372
レコード	-9.56394
若	-9.56405
非常に	-9.56426
co	-9.5651
展開	-9.56546
の大	-9.56566
府	-9.5659
ロス	-9.56692
実験	-9.56749
運行	-9.5679
引き	-9.56883
枚	-9.56888
2006	-9.56905
華	-9.56907
の第	-9.57005
ko	-9.5702
サッカー	-9.57031
ディー	-9.57124
宝	-9.57139
▁in	-9.57207
プレイ	-9.5721
メーカー	-9.57244
得点	-9.5725
盤	-9.57397
任	-9.57441
を務める	-9.57483
犬	-9.57492
シーン	-9.57616
ch	-9.57661
ワン	-9.57776
景	-9.57801
私	-9.57882
日本人	-9.57908
核	-9.57937
la	-9.58031
協力	-9.58159
2012	-9.58182
初めて	-9.58243
観	-9.58298
障害	-9.58341
カップ	-9.58403
空間	-9.58412
視	-9.58427
▁17	-9.58446
向	-9.58468
男子	-9.58533
メイン	-9.58631
ユニット	-9.58682
専門	-9.58738
予選	-9.58816
することで	-9.58979
江戸	-9.59061
業務	-9.59071
もしくは	-9.59162
軌道	-9.59204
られている	-9.59289
それを	-9.59311
防衛	-9.59322
造	-9.59372
▁2002	-9.59417
ベスト	-9.59495
兄弟	-9.59551
望	-9.5957
軸	-9.59582
スキー	-9.59584
数は	-9.59591
庁	-9.59657
ッツ	-9.5969
などに	-9.59748
no	-9.59776
倉	-9.59776
イギリスの	-9.59956
アメリカの	-9.60053
dvd	-9.60076
勝ち	-9.60285
なり	-9.60293
▁()	-9.60341
ノー	-9.60347
バイ	-9.60347
トー	-9.60351
遊	-9.60371
リスト	-9.60419
印	-9.60536
44	-9.6055
と呼ぶ	-9.60567
報道	-9.60601
オン	-9.60618
学者	-9.60625
かった	-9.60653
上に	-9.60686
弁	-9.60749
工	-9.60853
同盟	-9.60889
端	-9.61034
選手権	-9.61065
べ	-9.61189
かい	-9.61225
筋	-9.61237
別の	-9.61456
東京都	-9.61504
▁km	-9.61511
になると	-9.61618
デル	-9.61619
域	-9.61623
ジョ	-9.61667
にあり	-9.6181
首相	-9.61873
革命	-9.61942
規定	-9.61945
浜	-9.61952
▁現在	-9.61977
万人	-9.6205
だい	-9.62141
セン	-9.62157
を参照	-9.62212
プログラム	-9.62226
全て	-9.62254
酸	-9.62259
結婚	-9.62262
帝国	-9.62304
早	-9.62304
しょう	-9.6233
名古屋	-9.62366
大型	-9.62383
を示す	-9.62399
ライト	-9.62536
広島	-9.6259
保護	-9.62649
農業	-9.62681
れば	-9.62699
格	-9.62703
反対	-9.62801
特	-9.62875
するなど	-9.62995
の戦い	-9.63105
したため	-9.63185
形態	-9.6325
カナダ	-9.6326
存在	-9.63282
スタイル	-9.63295
セル	-9.63376
の研究	-9.634
ss	-9.63414
発行	-9.63423
善	-9.63537
▁2001	-9.63583
単位	-9.63645
歌手	-9.637
で行われた	-9.63774
いわゆる	-9.63842
としても	-9.63857
シティ	-9.63884
温泉	-9.63912
番号	-9.63916
の娘	-9.63926
テン	-9.63951
ポーランド	-9.63957
es	-9.6398
君	-9.63989
ps	-9.64092
▁s	-9.64127
を通じて	-9.6413
詩	-9.64175
余	-9.64187
孫	-9.64469
可能	-9.64478
竜	-9.64497
ii	-9.64512
▁例えば	-9.64619
引	-9.64682
いくつかの	-9.6469
ドゥ	-9.64719
介	-9.64731
資料	-9.64764
装備	-9.64858
46	-9.64896
側の	-9.65
55	-9.65016
皇帝	-9.65019
47	-9.65038
ヨ	-9.65186
をもって	-9.65283
最	-9.65449
に近い	-9.65604
▁現在は	-9.65615
首	-9.65624
▁b	-9.65676
やま	-9.65701
味	-9.65713
商	-9.65756
矢	-9.65833
el	-9.65929
内で	-9.65946
を受ける	-9.6596
逆	-9.65969
慶	-9.65995
tv	-9.66002
出し	-9.66004
基地	-9.66042
郎	-9.66052
オーストラリア	-9.66132
メン	-9.66208
ショー	-9.66234
宗教	-9.66274
圏	-9.663
出す	-9.66317
図書館	-9.66329
塔	-9.66362
小さな	-9.66375
一部の	-9.66432
俳優	-9.66433
富	-9.66545
te	-9.66701
大臣	-9.66719
康	-9.66759
委員	-9.6676
の場合	-9.66779
2013	-9.66869
共和国	-9.66879
アップ	-9.66918
服	-9.66996
2014	-9.67009
貴	-9.67017
拡大	-9.67048
とその	-9.6709
を結ぶ	-9.67184
設立	-9.67218
法律	-9.67241
▁翌	-9.67244
sa	-9.67247
サイ	-9.67376
となって	-9.67413
事務所	-9.67443
億	-9.67476
新たに	-9.67515
ドン	-9.67548
連邦	-9.6757
急	-9.67717
毎年	-9.67808
減	-9.67933
するが	-9.67984
友	-9.67986
収録	-9.68021
地元	-9.68167
機械	-9.68207
とう	-9.68213
当初は	-9.68233
専用	-9.68263
国立	-9.68289
』、『	-9.68306
が行われ	-9.68369
連合	-9.6838
最大の	-9.68381
改造	-9.68391
ストーリー	-9.68414
になって	-9.6845
湯	-9.68506
引退	-9.68554
女優	-9.6862
標準	-9.6862
名称	-9.68662
アンド	-9.68663
仕様	-9.68741
ほとんど	-9.68794
歳で	-9.6882
at	-9.68829
議員	-9.68842
倍	-9.68846
地震	-9.68875
通算	-9.68895
ラム	-9.68959
娘	-9.68976
フォン	-9.69137
九	-9.69164
切	-9.69286
国の	-9.69309
キング	-9.69349
トル	-9.69395
すべて	-9.69425
制限	-9.69471
える	-9.69495
キャ	-9.69548
ミン	-9.69563
完成	-9.69603
ボー	-9.69692
商業	-9.69725
網	-9.69862
配信	-9.69936
時期	-9.69955
ミュージック	-9.69993
すれば	-9.70033
となっていた	-9.70105
2005	-9.70135
行き	-9.70135
においても	-9.70143
、2010	-9.70217
ブリ	-9.70266
観光	-9.70316
速度	-9.7032
しん	-9.70326
ワールド	-9.70429
ソ連	-9.70489
生物	-9.70621
交換	-9.70707
形で	-9.70767
剤	-9.70779
社長	-9.70806
1000	-9.70898
▁5	-9.70917
関西	-9.70927
連載	-9.70975
アメリカ合衆国の	-9.7099
2004	-9.71021
弟	-9.71099
奥	-9.71157
ルート	-9.71188
生徒	-9.7124
配置	-9.7131
アフリカ	-9.71418
提供	-9.71437
と考えられている	-9.71481
医療	-9.71482
ことが多い	-9.71491
方向	-9.71498
のもの	-9.71531
学部	-9.71543
末	-9.71632
▁and	-9.71711
広く	-9.71722
しばしば	-9.7174
as	-9.71747
必要	-9.71751
茶	-9.71771
位置	-9.71785
ティー	-9.71868
脳	-9.71878
深	-9.7193
際	-9.72114
ごとに	-9.72131
を意味する	-9.72153
したり	-9.72197
モー	-9.72223
丁目	-9.72284
シャー	-9.72298
タイプ	-9.72389
の間	-9.72391
本部	-9.72414
ジン	-9.72452
博物館	-9.72516
のか	-9.72535
頃	-9.72552
切り	-9.72577
操作	-9.72638
がない	-9.72667
改革	-9.72674
以降は	-9.72723
、2007	-9.72728
42	-9.72767
ジャー	-9.72777
議会	-9.72791
最終	-9.72792
強い	-9.72827
変	-9.72902
柳	-9.72906
土地	-9.72935
がいる	-9.72951
バージョン	-9.72958
打	-9.72967
報告	-9.72982
劇	-9.72999
幕	-9.73068
説明	-9.73075
2015	-9.73085
制御	-9.73097
長い	-9.73113
変化	-9.73146
do	-9.7319
ックス	-9.73194
を開始した	-9.73201
停止	-9.73271
桜	-9.73275
ゲン	-9.73291
▁これ	-9.73317
健	-9.73415
クラ	-9.73445
回転	-9.7346
んで	-9.73498
▁1990	-9.73522
連盟	-9.73574
だけでなく	-9.7367
だと	-9.73692
機体	-9.73699
沼	-9.73741
関東	-9.73795
イー	-9.73827
候補	-9.73847
、2008	-9.73875
et	-9.74034
ソフト	-9.74054
黄	-9.74057
コード	-9.74059
ジョージ	-9.74071
on	-9.74149
綱	-9.74159
、2009	-9.74236
マーク	-9.74275
大陸	-9.74296
積	-9.74305
を指す	-9.74356
たちは	-9.74418
神戸	-9.74423
43	-9.74469
種類	-9.74516
子供	-9.74536
肉	-9.7459
連絡	-9.74622
型の	-9.74698
ブルー	-9.7471
pc	-9.74859
号線	-9.7486
唯一の	-9.74872
os	-9.74925
分類	-9.75116
me	-9.75147
に入り	-9.75154
フランスの	-9.75167
シェ	-9.75173
してきた	-9.75245
欧州	-9.75273
it	-9.75381
会員	-9.75397
▁c	-9.75413
フォード	-9.75425
廃止	-9.75429
多数の	-9.75438
ことになる	-9.75477
任務	-9.75488
設備	-9.75522
同時に	-9.75535
主人公	-9.75568
初期	-9.7561
テル	-9.75638
盛	-9.75721
!」	-9.75734
コンピュータ	-9.75764
ミー	-9.75801
ジャン	-9.75915
の開発	-9.75931
油	-9.75998
一方	-9.76089
カール	-9.7612
ダイ	-9.76154
と言う	-9.76282
自己	-9.76349
孝	-9.76498
ケン	-9.76827
要	-9.76844
自身	-9.76867
地上	-9.76913
▁6	-9.76914
に属する	-9.76922
西部	-9.76985
ro	-9.77017
スタッフ	-9.77055
のち	-9.77058
様	-9.77065
×	-9.77068
ボール	-9.77078
交流	-9.771
美術	-9.77227
指導	-9.77277
▁日本では	-9.77299
のほか	-9.77355
▁formula	-9.77398
の後	-9.77404
mo	-9.77452
子の	-9.77464
労働	-9.7751
高速	-9.77527
けん	-9.7763
ファー	-9.77692
発生	-9.77722
モード	-9.77766
年にかけて	-9.77883
ともに	-9.77902
記事	-9.77913
ほう	-9.77928
▁だが	-9.77941
にして	-9.78019
牛	-9.78161
距離	-9.78165
文書	-9.7818
ヶ月	-9.78194
、2006	-9.7826
からなる	-9.78303
行われた	-9.78368
選択	-9.78388
米国	-9.78404
そのまま	-9.78406
競走	-9.78467
内閣	-9.78476
辺	-9.78525
▁10	-9.78603
俊	-9.78604
朝鮮	-9.78696
▁大	-9.78717
41	-9.78813
以後	-9.78886
貴族	-9.78912
もう	-9.78917
定義	-9.79069
00	-9.79073
まず	-9.79102
400	-9.79121
ピアノ	-9.79122
支配	-9.79142
世の	-9.79144
周辺	-9.79154
使	-9.79161
展示	-9.79191
すべての	-9.79318
プラ	-9.79364
本塁打	-9.79391
▁1999	-9.79393
窓	-9.79401
昌	-9.79404
要素	-9.79427
出力	-9.7943
訓練	-9.79444
ウェイ	-9.79462
同社	-9.79464
カラー	-9.79471
自治体	-9.79492
罪	-9.7958
球団	-9.79591
中で	-9.7969
込む	-9.79727
ポール	-9.79728
圧	-9.79781
いずれも	-9.79814
貞	-9.79821
接続	-9.79828
枝	-9.79828
農	-9.79899
傷	-9.79945
アス	-9.80015
本線	-9.80039
lo	-9.80044
を取り	-9.80045
命令	-9.80047
となっており	-9.80087
、2011	-9.80096
することができる	-9.80158
en	-9.80183
リオ	-9.80244
だけで	-9.80262
ベイ	-9.80269
旅	-9.80272
を得た	-9.80279
際に	-9.80282
実施	-9.80329
名の	-9.80409
あまり	-9.80436
中継	-9.80437
彼	-9.80487
ごう	-9.80641
58	-9.80689
65	-9.80692
の一	-9.80697
税	-9.80735
憲法	-9.80763
ニア	-9.80837
フォ	-9.80862
かわ	-9.80868
ていく	-9.80931
落	-9.80941
てしまう	-9.80942
書き	-9.8095
ゾ	-9.81002
冬	-9.81027
64	-9.81033
機器	-9.81209
と同様に	-9.81295
ドイツの	-9.81321
▁8	-9.81347
壁	-9.81378
いない	-9.81431
分の	-9.81441
▁f	-9.81466
2016	-9.81546
メル	-9.81562
投手	-9.81589
化学	-9.81591
同じく	-9.81601
共に	-9.81613
東部	-9.81614
トラック	-9.8164
営	-9.81685
栄	-9.81758
オランダ	-9.81769
限定	-9.81876
立ち	-9.81956
冠	-9.82093
の名前	-9.82096
スタート	-9.82121
ネットワーク	-9.82129
資金	-9.82136
中心	-9.82223
ハウス	-9.82281
ゆ	-9.82284
純	-9.82305
銃	-9.82308
対策	-9.82325
翼	-9.82417
▁7	-9.8246
ヴァー	-9.82505
きた	-9.82565
保存	-9.82617
ペン	-9.82648
を務め	-9.82653
相手	-9.8269
ウス	-9.82786
ユー	-9.82815
智	-9.82849
イングランド	-9.8296
までは	-9.8298
打ち	-9.82983
独自の	-9.83062
対立	-9.83076
▁18	-9.83093
密	-9.8312
柱	-9.83123
装	-9.83138
速	-9.8326
などがある	-9.83391
延長	-9.83393
言葉	-9.83396
留	-9.83462
付き	-9.83474
意味	-9.83476
博	-9.83483
車体	-9.83499
李	-9.8356
ことになった	-9.83562
-2	-9.83598
ことに	-9.83602
オル	-9.83678
ボン	-9.83705
剣	-9.83787
伝説	-9.83807
cc	-9.83842
タル	-9.83913
を果たした	-9.83921
ちゃん	-9.83924
tbs	-9.83937
姫	-9.83939
カラ	-9.83958
出した	-9.84082
布	-9.84112
延	-9.84112
▁元	-9.84137
領域	-9.84158
じょう	-9.84171
精神	-9.84191
▁16	-9.84192
ホー	-9.8421
ようになる	-9.8424
▁現在の	-9.8425
従来の	-9.84265
物質	-9.84393
年代に	-9.84402
地下	-9.84403
茂	-9.84403
、2012	-9.84424
49	-9.84474
54	-9.84536
仲	-9.8456
防	-9.84564
ものは	-9.84616
日より	-9.84635
法人	-9.84649
オープン	-9.84672
を用いて	-9.84717
植民地	-9.84743
月まで	-9.84776
住民	-9.84829
公式	-9.84867
2003	-9.8487
報	-9.84966
脚	-9.84979
インターネット	-9.84992
コル	-9.85036
王座	-9.85047
諸島	-9.85071
もあった	-9.85079
の中心	-9.85131
住宅	-9.85182
の結果	-9.85259
平和	-9.853
交渉	-9.85368
ウィリアム	-9.85424
分野	-9.85434
術	-9.85626
結合	-9.85652
電力	-9.85653
こともあり	-9.85676
付近	-9.85688
影響	-9.85695
関数	-9.85748
普通	-9.85857
部屋	-9.85864
基本	-9.85897
杯	-9.85917
ne	-9.85992
あった	-9.86045
75	-9.86067
購入	-9.86123
-3	-9.86236
少女	-9.86259
ものであった	-9.86291
ヴァン	-9.86308
についても	-9.86332
声優	-9.86359
絶	-9.86359
固定	-9.86368
受	-9.86409
の中	-9.86455
補	-9.8646
トンネル	-9.86462
世は	-9.86467
務	-9.86483
兄	-9.86504
戦車	-9.86528
と同時に	-9.86539
合成	-9.86542
ソフトウェア	-9.86567
パーク	-9.86583
)4	-9.8659
進出	-9.86623
自動	-9.86648
知事	-9.86655
ゴール	-9.86686
のメンバー	-9.86731
グラ	-9.8674
計算	-9.86752
とされた	-9.86809
ヘル	-9.86813
会場	-9.8683
通常	-9.86837
ベン	-9.86843
可能性	-9.86857
死去	-9.8686
過	-9.86879
旗	-9.86892
ドー	-9.86896
堀	-9.86993
ar	-9.87017
追	-9.87018
解散	-9.87021
名が	-9.87124
サイド	-9.87124
甲	-9.87144
軍は	-9.87183
指	-9.87192
修	-9.87227
まだ	-9.87265
のひとつ	-9.87305
伯	-9.87368
獲得	-9.87408
ca	-9.87433
性能	-9.87435
材	-9.87457
太平洋	-9.87467
を有する	-9.87469
クル	-9.87511
意識	-9.87569
指揮	-9.87574
結	-9.87634
▁それ	-9.8764
をする	-9.87655
ポン	-9.87677
ga	-9.87683
目標	-9.8769
議	-9.87971
クロ	-9.87971
部の	-9.87975
▁そこで	-9.88041
むら	-9.88064
▁12	-9.88069
時代に	-9.88086
ルール	-9.88094
仕事	-9.88094
次郎	-9.88168
キリスト教	-9.88277
姓	-9.88336
現象	-9.88378
タウン	-9.88393
たり	-9.884
推進	-9.88407
56	-9.88433
演出	-9.88482
レベル	-9.88484
id	-9.88489
1990	-9.88531
の間に	-9.88543
復帰	-9.88557
導入	-9.88566
エス	-9.88676
▁1980	-9.88775
師団	-9.88783
眼	-9.88793
げ	-9.88849
まま	-9.8887
国鉄	-9.88892
に入る	-9.88905
プレ	-9.88942
論文	-9.89027
しなかった	-9.89037
全体	-9.89095
2002	-9.89191
確認	-9.89191
交	-9.892
▁<	-9.8942
デー	-9.89426
精	-9.89553
医	-9.89564
に関しては	-9.89652
議論	-9.89655
分析	-9.89769
電話	-9.89802
政党	-9.89896
乳	-9.89928
穴	-9.89943
特徴	-9.90084
に加え	-9.9011
▁1998	-9.90124
2001	-9.9013
2017	-9.90187
具	-9.90224
ことも	-9.90227
ブロック	-9.90229
更新	-9.90265
mi	-9.90287
手法	-9.90298
込んだ	-9.9032
da	-9.90359
卵	-9.90396
ケース	-9.90461
実際に	-9.90551
マス	-9.90581
記述	-9.90596
歯	-9.90619
投票	-9.9062
いく	-9.90631
検査	-9.90645
策	-9.90685
日本語	-9.90703
発展	-9.90706
本社	-9.90733
の歴史	-9.90802
is	-9.9081
将	-9.90845
57	-9.9086
ba	-9.90886
乱	-9.9089
らが	-9.90901
殿	-9.90912
ビン	-9.9092
ジャパン	-9.90966
部長	-9.91017
で開催された	-9.9104
sc	-9.91048
or	-9.91071
登場	-9.91088
仕	-9.91099
ーズ	-9.91153
優	-9.91248
町の	-9.91259
プロデューサー	-9.91289
おお	-9.91327
いい	-9.9133
の存在	-9.91347
メキシコ	-9.91353
料	-9.91376
とされ	-9.91448
起	-9.91454
フィールド	-9.9147
通称	-9.91475
パス	-9.91506
射	-9.91511
の名	-9.91533
を除く	-9.91596
オール	-9.91619
#	-9.91666
▁これにより	-9.91672
既に	-9.91716
武器	-9.91798
金属	-9.91813
ブラック	-9.91879
完全	-9.91929
ション	-9.92053
砂	-9.92054
ia	-9.92106
fa	-9.92107
したもの	-9.92129
ベルリン	-9.92138
廃	-9.92184
...	-9.92201
これら	-9.92224
航空機	-9.92279
チン	-9.92308
うち	-9.9231
ter	-9.92367
録音	-9.92454
に由来する	-9.92494
リス	-9.92503
陸	-9.92529
応	-9.92535
イル	-9.9257
名を	-9.926
デジタル	-9.92664
抵抗	-9.92736
規制	-9.92758
pa	-9.9278
不足	-9.92784
老	-9.92796
の子	-9.92798
グリ	-9.92799
主演	-9.92813
位の	-9.92842
市内	-9.92885
刀	-9.92924
エー	-9.92957
被害	-9.92959
、2005	-9.9297
▁11	-9.9298
▁当初は	-9.92987
gp	-9.93008
ブラジル	-9.93092
ドラ	-9.93156
の中に	-9.93165
就任	-9.93173
il	-9.93174
底	-9.93179
氷	-9.93197
氏の	-9.93301
緑	-9.93309
ピー	-9.93351
拡張	-9.93442
収	-9.93446
コンサート	-9.93484
、2014	-9.93497
愛知県	-9.93517
症	-9.9356
セント	-9.93626
派の	-9.93672
▁明治	-9.9378
分離	-9.93782
なくなった	-9.93821
動き	-9.93876
▁e	-9.93951
エイ	-9.94002
アーティスト	-9.94017
オーストリア	-9.9403
エリア	-9.9405
ワールドカップ	-9.94087
ダンス	-9.94139
は約	-9.94145
それぞれの	-9.94149
▁本	-9.9416
温	-9.94194
独	-9.94201
阿	-9.94242
神経	-9.94254
と対戦し	-9.9436
の元	-9.94375
、2013	-9.94435
集合	-9.94448
レット	-9.94487
週間	-9.947
期待	-9.94724
短	-9.94725
すぐに	-9.94727
護	-9.94745
ほ	-9.94753
なか	-9.94767
チュ	-9.94778
ms	-9.94779
gi	-9.94779
ギター	-9.94789
であるため	-9.9479
ac	-9.94801
サル	-9.94803
第三	-9.94827
唐	-9.9483
更に	-9.94845
be	-9.94854
レッド	-9.9487
時は	-9.94879
鬼	-9.94879
香港	-9.94894
筆	-9.949
ジュニア	-9.94905
分子	-9.94973
の影響	-9.95084
ページ	-9.95183
をはじめ	-9.95191
!』	-9.95337
環	-9.95357
扱い	-9.95371
ge	-9.95378
鈴木	-9.95406
▁後に	-9.9542
のまま	-9.95496
燃料	-9.95516
旅行	-9.95519
顔	-9.95527
シア	-9.95561
ロード	-9.95566
ナン	-9.95588
を始め	-9.95589
アナ	-9.95591
破壊	-9.95599
戦い	-9.95623
学会	-9.95664
製の	-9.95666
遺跡	-9.95687
電車	-9.95733
ha	-9.95744
姿	-9.9576
鶴	-9.95847
オス	-9.9586
▁1997	-9.95896
房	-9.95907
an	-9.95966
度目の	-9.95978
劉	-9.96011
テレビドラマ	-9.96169
リリース	-9.9618
成功	-9.96225
ゲスト	-9.96245
テスト	-9.96251
多く	-9.96269
度の	-9.96275
)3	-9.96285
▁to	-9.96338
事実	-9.96358
思想	-9.96373
ネス	-9.96427
配	-9.96447
紀元前	-9.96478
ソロ	-9.9649
99	-9.96525
率いる	-9.96525
されたが	-9.96604
運	-9.9669
受け	-9.96719
流れ	-9.9673
課	-9.96747
古代	-9.96763
にわたって	-9.96774
作曲家	-9.96802
▁9	-9.96805
三郎	-9.96811
実行	-9.96835
礼	-9.96946
労働者	-9.96964
焼	-9.96972
59	-9.97019
メイ	-9.97026
禁止	-9.97065
建物	-9.97094
要求	-9.972
也	-9.97319
考え	-9.97322
区域	-9.97347
実現	-9.97387
スペシャル	-9.97391
コーチ	-9.97402
なども	-9.97409
破	-9.97426
ti	-9.97484
▁全	-9.97491
ちょう	-9.97497
ヒット	-9.97534
賀	-9.97536
編集	-9.97548
幕府	-9.97611
とも呼ばれる	-9.97631
安全	-9.97648
理由	-9.97735
可能な	-9.9774
登	-9.97741
▁1996	-9.97847
するという	-9.97931
の際に	-9.97985
ざ	-9.97987
式の	-9.98024
階級	-9.9803
ドア	-9.98056
デス	-9.98097
ミニ	-9.98117
ベース	-9.9818
民間	-9.98211
散	-9.98232
月より	-9.9824
1980	-9.98286
▁p	-9.98324
腹	-9.98368
指名	-9.98371
大きく	-9.98428
近代	-9.98445
本の	-9.98471
泰	-9.9851
支持	-9.98597
認定	-9.98603
改正	-9.98611
資格	-9.9863
全日本	-9.98662
参戦	-9.98675
川の	-9.98697
と呼ばれ	-9.98701
できた	-9.98768
週	-9.98792
まり	-9.98818
トロ	-9.98854
従	-9.98854
恵	-9.98874
に登場する	-9.98876
処分	-9.98939
田中	-9.98986
過去	-9.98988
の下	-9.99006
丘	-9.99039
スク	-9.99106
go	-9.99163
東北	-9.99189
敬	-9.99194
価格	-9.99271
改良	-9.99271
化した	-9.9933
億円	-9.99357
です	-9.99357
奈	-9.99379
地点	-9.99441
一人	-9.99444
ソー	-9.99464
、2000	-9.99486
信仰	-9.99488
被	-9.99517
市長	-9.99555
フォー	-9.99564
ぬ	-9.99623
祖	-9.99639
戦後	-9.99642
試	-9.99645
一郎	-9.99665
カメラ	-9.99761
.2	-9.99783
宣言	-9.99815
当駅	-9.99822
街道	-9.99823
英国	-9.99861
グリーン	-9.99902
取引	-10.0002
通常の	-10.0003
の各	-10.0007
歩	-10.0015
腕	-10.0017
ッチ	-10.002
裁判	-10.002
▁k	-10.0022
放	-10.0023
証	-10.0023
輸入	-10.0029
医師	-10.0033
沖縄	-10.0035
前後	-10.004
住	-10.0043
であること	-10.0047
プリ	-10.0051
ファイル	-10.0051
マイル	-10.0054
供給	-10.0057
エア	-10.0062
吉田	-10.0063
からも	-10.0064
埼玉県	-10.0065
導	-10.0068
化された	-10.0072
貿易	-10.0075
岸	-10.0078
後も	-10.0085
治療	-10.0088
境	-10.009
兵器	-10.0092
を用いた	-10.0098
ポリ	-10.0102
調整	-10.0105
魔	-10.0106
柄	-10.0112
、2015	-10.0112
イオン	-10.0114
の作品	-10.0116
クリ	-10.0119
国王	-10.0121
場合もある	-10.0128
関係者	-10.0129
段階	-10.0129
情	-10.013
マリ	-10.013
健康	-10.0133
福岡	-10.0145
ダル	-10.0154
準	-10.0157
レーベル	-10.0159
▁1995	-10.0159
さまざまな	-10.0161
長期	-10.0164
bs	-10.0166
大規模な	-10.0173
150	-10.0178
上げ	-10.0183
皮	-10.0186
ことにより	-10.019
バラ	-10.0192
を使って	-10.0194
食品	-10.0194
に入った	-10.0196
中村	-10.0197
の場合は	-10.0197
画家	-10.0199
休	-10.0201
ke	-10.0206
雅	-10.0211
それが	-10.0215
アウト	-10.0217
ウル	-10.0218
▁("	-10.0226
ピン	-10.023
恋	-10.0233
遺	-10.0236
床	-10.0239
formula	-10.0243
ミス	-10.0243
大学の	-10.0247
ポー	-10.0249
ップ	-10.0255
ケイ	-10.0256
しゃ	-10.0256
800	-10.0261
いち	-10.0264
雑	-10.0264
合い	-10.0266
に至る	-10.0267
細	-10.0268
小型	-10.0269
大阪府	-10.027
日間	-10.0272
児童	-10.0278
側に	-10.0279
タレント	-10.028
クー	-10.0283
だろう	-10.029
事態	-10.029
スウェーデン	-10.0294
始めた	-10.03
ッシュ	-10.0305
つき	-10.031
li	-10.031
衛星	-10.0312
途中	-10.0316
ゴー	-10.0322
ka	-10.0322
メジャー	-10.0323
ハル	-10.0324
失	-10.0325
場合には	-10.0333
年以降	-10.034
太陽	-10.0345
原作	-10.0346
ra	-10.0349
ベー	-10.0353
上位	-10.0354
嘉	-10.0357
に参加	-10.0362
これが	-10.0371
河川	-10.0373
-6	-10.0378
画面	-10.0379
富士	-10.038
始め	-10.0381
マシン	-10.0381
売	-10.0381
特定の	-10.0383
失敗	-10.0384
競馬	-10.0389
千葉	-10.0391
ものであり	-10.0392
sp	-10.0393
鎮	-10.0404
を表す	-10.041
▁t	-10.0416
ガル	-10.0418
まる	-10.0423
51	-10.0427
諸国	-10.0428
ki	-10.0428
家庭	-10.0429
が行われる	-10.043
なし	-10.0431
▁1970	-10.0433
のみで	-10.0438
年齢	-10.0443
継続	-10.0446
題	-10.0449
ロケット	-10.0458
ヒル	-10.0459
許	-10.046
空気	-10.046
イメージ	-10.0462
退	-10.0464
古い	-10.0469
脱	-10.047
統治	-10.0471
貨物	-10.0471
掲載	-10.0476
飯	-10.0476
複数	-10.0476
合計	-10.0479
息子	-10.0479
主張	-10.0482
名誉	-10.0483
中部	-10.0484
上昇	-10.0488
分割	-10.0488
炎	-10.0489
規格	-10.049
広告	-10.0492
えき	-10.0496
解決	-10.0496
医学	-10.0496
pe	-10.0496
比較的	-10.0496
思い	-10.0504
参	-10.0506
ラス	-10.051
デイ	-10.0511
av	-10.0516
グランプリ	-10.0517
▁当時	-10.0517
撤退	-10.052
アリ	-10.0521
鹿	-10.0522
を得る	-10.0524
券	-10.0525
ときに	-10.0526
ルイ	-10.0531
票	-10.0534
澤	-10.0535
理解	-10.0543
入れ	-10.0552
阪神	-10.0557
思	-10.0562
ボル	-10.0563
哲学	-10.0565
れる	-10.0574
にもかかわらず	-10.0577
塚	-10.0578
侵攻	-10.058
、2004	-10.0581
レギュラー	-10.0583
拠点	-10.059
菌	-10.0591
プレー	-10.0591
静	-10.0591
ケー	-10.0591
羅	-10.0597
近く	-10.0598
世紀の	-10.0602
テーマ	-10.0603
可	-10.0603
各種	-10.0605
弱	-10.0613
読み	-10.0613
博士	-10.0616
1999	-10.0617
傾向	-10.0618
▁1994	-10.0618
ずつ	-10.0619
現在も	-10.0619
箱	-10.062
?	-10.0621
やすい	-10.0626
杉	-10.0626
▁ア	-10.063
組合	-10.0635
▁re	-10.0641
▁d	-10.0644
動作	-10.0645
正式に	-10.0648
翌年	-10.0651
結成	-10.0658
一番	-10.066
長崎	-10.0661
畑	-10.0667
ものが	-10.0667
ていった	-10.0668
一方で	-10.0683
アイルランド	-10.0683
52	-10.0686
後期	-10.0688
特定	-10.069
シル	-10.0693
ナイト	-10.0694
ぼ	-10.0695
多数	-10.0697
長官	-10.0699
セイ	-10.0703
リック	-10.0708
栽培	-10.071
戦略	-10.0714
滝	-10.0714
業界	-10.0717
あい	-10.0719
けい	-10.0725
年現在	-10.0726
向き	-10.0727
のない	-10.073
宇	-10.0731
85	-10.0731
犯罪	-10.0738
作り	-10.0738
fm	-10.074
プレイヤー	-10.0743
、2016	-10.0744
au	-10.0745
舞	-10.0745
ユダヤ人	-10.0751
自分	-10.0753
に就任	-10.0761
青年	-10.0762
終	-10.0765
53	-10.0768
ング	-10.0773
折	-10.0774
呉	-10.0775
1970	-10.0779
63	-10.0784
姉	-10.0789
準備	-10.079
千葉県	-10.079
一時	-10.0791
打率	-10.0791
共通	-10.0792
復活	-10.0798
自らの	-10.0805
un	-10.0808
追加	-10.0808
主要	-10.0808
]	-10.0808
継承	-10.081
チャンネル	-10.0811
固	-10.0817
連隊	-10.082
交差点	-10.082
▁g	-10.082
でき	-10.0822
ランキング	-10.0823
東海	-10.0824
ry	-10.0826
までに	-10.083
向けの	-10.083
仙台	-10.0832
認識	-10.0836
島の	-10.0838
兵士	-10.0841
民主党	-10.0844
たちが	-10.0845
ce	-10.0846
集落	-10.0855
と考えられる	-10.0856
略	-10.0858
▁主に	-10.0859
佐藤	-10.0862
弁護士	-10.0863
箇所	-10.0871
スタジアム	-10.0871
取得	-10.0874
リュ	-10.0874
スペース	-10.0875
移転	-10.0875
亜	-10.088
本作	-10.0884
武装	-10.0892
<	-10.0892
たちの	-10.0895
を超える	-10.0895
com	-10.0896
ds	-10.0896
脚本	-10.0896
ほどの	-10.0913
〈	-10.0914
▁このような	-10.0916
〉	-10.0916
ノン	-10.092
裁判所	-10.0922
ワイ	-10.0925
発射	-10.0928
地域の	-10.0929
決勝	-10.0946
標高	-10.0952
きょう	-10.0955
のちに	-10.0957
共	-10.0957
納	-10.0957
)12	-10.096
山田	-10.096
送	-10.0966
養	-10.0971
した後	-10.0972
冊	-10.0972
寿	-10.0977
海岸	-10.0988
すでに	-10.099
離	-10.0994
学院	-10.0994
フィン	-10.0996
ジャック	-10.0996
.3	-10.0997
ri	-10.0997
600	-10.1002
ワシントン	-10.1002
従来	-10.1007
をしている	-10.1009
逃げ	-10.1013
チャー	-10.1015
カイ	-10.1018
採用	-10.102
暦	-10.1023
児	-10.1029
状の	-10.1033
▁一方で	-10.1035
77	-10.1044
派遣	-10.1044
構想	-10.1048
大和	-10.105
半島	-10.1054
信号	-10.1055
当時は	-10.1059
86	-10.106
ようになり	-10.1063
記載	-10.1067
梅	-10.107
膜	-10.1078
帰	-10.108
88	-10.108
一般的な	-10.1085
読	-10.1088
son	-10.1089
チャンピオン	-10.1089
エピソード	-10.1089
様式	-10.1093
vi	-10.1097
トルコ	-10.1102
惑星	-10.1103
スクール	-10.1106
ビット	-10.1106
成長	-10.1106
と述べている	-10.1112
職員	-10.1114
陳	-10.1115
形状	-10.1118
66	-10.1122
ビジネス	-10.1122
与	-10.1122
尊	-10.1124
市出身	-10.1125
徐々に	-10.1129
▁その他	-10.113
colspan	-10.1132
キュ	-10.1133
規模	-10.1145
に基づく	-10.1146
背	-10.1151
程	-10.1152
およそ	-10.1155
走行	-10.1161
ぶり	-10.1162
ハンガリー	-10.1164
カバー	-10.1168
解釈	-10.1171
潜水艦	-10.1172
替え	-10.1173
アナウンサー	-10.1174
伊勢	-10.1178
ウェ	-10.1179
の一人	-10.1182
その他の	-10.1186
爆発	-10.1188
有名な	-10.1189
についての	-10.1194
インディアン	-10.1195
回復	-10.1199
アイドル	-10.1202
宣	-10.1203
特急	-10.1204
刑	-10.1207
▁各	-10.1208
-4	-10.121
振り	-10.1214
安定	-10.1218
たため	-10.1219
はなく	-10.1226
をした	-10.1228
ヤン	-10.1236
評	-10.1242
強化	-10.1247
急行	-10.1248
なお	-10.1249
ユーザー	-10.125
例えば	-10.1251
▁1992	-10.1251
典	-10.1254
財政	-10.1259
é	-10.126
ヴォ	-10.1267
美術館	-10.1268
獣	-10.1272
の一つである	-10.1272
次元	-10.1273
チームの	-10.1274
昭	-10.1277
降	-10.1278
作用	-10.1283
特殊	-10.1283
邦	-10.1286
モスクワ	-10.1288
していく	-10.129
裕	-10.1291
っており	-10.1295
▁w	-10.1296
重量	-10.1298
寄	-10.1301
荘	-10.1303
を引き	-10.1304
賢	-10.1314
ヴェル	-10.1318
世代	-10.1324
冷	-10.1327
原因	-10.1333
man	-10.1335
首都	-10.1339
監督の	-10.1339
山口	-10.134
再生	-10.134
発見	-10.1343
そこ	-10.1345
▁1993	-10.135
存在する	-10.1355
死亡	-10.1359
ミサイル	-10.1359
略称	-10.1361
僧	-10.1361
後半	-10.1365
オペラ	-10.1367
意見	-10.1368
の息子	-10.137
糸	-10.1372
パラ	-10.1379
銅	-10.1383
彼女の	-10.1385
ニン	-10.1385
um	-10.1391
と呼ばれた	-10.1394
62	-10.1398
させて	-10.14
年からは	-10.1401
初期の	-10.1401
の世界	-10.1404
山本	-10.1411
残り	-10.1412
78	-10.1413
▁東京	-10.1413
ペル	-10.1415
自身が	-10.1421
▁かつては	-10.1422
臣	-10.1423
陰	-10.1424
クレ	-10.1425
できなかった	-10.1431
一度	-10.1438
の間で	-10.1439
稲	-10.1446
コール	-10.1447
生き	-10.1451
ール	-10.1453
同様	-10.1456
ブレーキ	-10.1457
改	-10.1461
参照	-10.1463
輸出	-10.1467
重要	-10.147
の手	-10.1475
続く	-10.1476
ad	-10.1476
める	-10.1483
置	-10.149
演劇	-10.149
権利	-10.149
棟	-10.1496
ミル	-10.1497
リンク	-10.1497
教師	-10.1501
金融	-10.1503
なった	-10.1511
刊行	-10.1514
▁1991	-10.1515
を通して	-10.1515
されていたが	-10.1517
州の	-10.1519
現在では	-10.1522
ine	-10.1522
芸	-10.1522
業者	-10.1524
不明	-10.1525
パル	-10.1526
争い	-10.1532
ナイ	-10.1535
プロダクション	-10.1536
創設	-10.1538
ディア	-10.1539
と同じく	-10.154
、1990	-10.1545
有名	-10.1545
混乱	-10.1545
のこと	-10.1546
ポート	-10.1548
練習	-10.1548
ソング	-10.1549
卒業後	-10.1553
仏教	-10.1555
接	-10.1559
入学	-10.1562
2018	-10.1576
駆逐艦	-10.1579
駅舎	-10.1582
軍団	-10.1585
ッカー	-10.1585
荒	-10.1585
が高い	-10.1589
キャリア	-10.1598
衝突	-10.1598
ゲル	-10.16
建造	-10.16
快	-10.16
則	-10.1602
影	-10.1604
庭	-10.1604
執筆	-10.1605
投	-10.1605
トム	-10.1606
行われ	-10.1607
事情	-10.1608
パワー	-10.1609
戦線	-10.1609
機の	-10.1609
ヶ	-10.1611
グル	-10.1617
に関して	-10.1618
ギリシャ	-10.1628
検討	-10.163
飛	-10.1632
ステ	-10.1635
株	-10.1635
am	-10.1641
札幌	-10.1645
を記録した	-10.1646
の下で	-10.1648
ブー	-10.165
コミック	-10.1653
解放	-10.1655
らない	-10.1656
ただし	-10.1662
露	-10.1663
改善	-10.1663
奏	-10.1663
知識	-10.1669
が必要	-10.1679
エジプト	-10.1685
それまで	-10.1688
藤原	-10.1689
文庫	-10.1693
ます	-10.1693
に参加した	-10.1694
61	-10.1695
丁	-10.1698
デュ	-10.1699
昇格	-10.1706
68	-10.171
投資	-10.1718
キャラ	-10.1718
なければならない	-10.1721
装甲	-10.1725
すべき	-10.1728
帰国	-10.1732
多い	-10.1741
髪	-10.1744
学科	-10.1745
統計	-10.1756
成立	-10.1757
チョ	-10.1758
アラ	-10.1761
講師	-10.178
すなわち	-10.1784
▁h	-10.1785
マリア	-10.1787
仮	-10.1789
したこと	-10.1791
件	-10.1792
mp	-10.1794
彼が	-10.1796
日本では	-10.1798
サラ	-10.1804
1998	-10.1806
テレ	-10.1807
の使用	-10.1808
外国人	-10.181
向上	-10.1814
中学	-10.1827
指導者	-10.1828
しい	-10.1835
地下鉄	-10.1835
協定	-10.1836
自治	-10.1838
方針	-10.1841
沖	-10.1842
;	-10.1844
▁しかしながら	-10.1846
それは	-10.1848
5%	-10.1849
あと	-10.1853
回り	-10.1853
成績	-10.1855
を始めた	-10.1858
であれば	-10.186
潮	-10.1863
藩主	-10.1864
ゴン	-10.1866
に変更	-10.1868
耳	-10.1869
フィルム	-10.1869
社の	-10.187
規則	-10.1873
修正	-10.1876
立て	-10.1881
守備	-10.189
輝	-10.1894
ベルク	-10.1899
発表された	-10.19
を求める	-10.1902
▁1989	-10.1906
殺	-10.192
スタン	-10.1921
戦では	-10.1921
解説	-10.1923
らの	-10.1923
立場	-10.1925
のことである	-10.1928
以前の	-10.193
暗	-10.1931
山脈	-10.1931
ロバート	-10.1933
を描いた	-10.1933
するための	-10.1951
面積	-10.1951
範囲	-10.1952
▁新	-10.1952
責任	-10.1952
)10	-10.1955
峰	-10.1958
仙	-10.196
新宿	-10.1963
地帯	-10.1963
ものを	-10.1964
予算	-10.1965
結局	-10.1973
フラ	-10.1974
行われる	-10.1979
歴代	-10.1983
倒	-10.1983
衣	-10.1984
功	-10.1995
維持	-10.1997
ヌス	-10.1998
受賞	-10.2002
全米	-10.2004
振	-10.2008
称	-10.2008
史上	-10.2011
ip	-10.2022
しく	-10.2024
最終的に	-10.2025
用語	-10.2026
人を	-10.2027
側面	-10.2037
に位置し	-10.2038
形の	-10.2039
▁for	-10.2042
、2017	-10.2044
sf	-10.2045
深い	-10.2046
国境	-10.2047
67	-10.2048
▁こうした	-10.2049
イスラエル	-10.2051
祖父	-10.2055
▁旧	-10.2061
▁/	-10.2063
ウクライナ	-10.2065
少	-10.2069
つく	-10.2071
を獲得した	-10.2072
べき	-10.2077
、2003	-10.2079
ci	-10.2081
苦	-10.2083
衆	-10.2083
仲間	-10.2084
高橋	-10.2084
戦闘機	-10.2084
峠	-10.2087
しても	-10.2088
98	-10.2093
毒	-10.2094
高さ	-10.2097
兵衛	-10.2097
はほとんど	-10.2098
営業所	-10.2098
創	-10.2105
アクション	-10.2105
マク	-10.2106
を持っている	-10.2107
権力	-10.2115
hi	-10.2117
ni	-10.212
も多く	-10.2135
実際には	-10.2136
も多い	-10.2136
▁15	-10.2138
鏡	-10.2143
フー	-10.2144
第二次世界大戦	-10.2147
占領	-10.2149
相互	-10.2149
判断	-10.2149
か月	-10.2151
サイズ	-10.2152
るようになった	-10.2154
しながら	-10.2154
描写	-10.2154
厳	-10.2161
体験	-10.2164
人に	-10.2167
比較	-10.2169
問	-10.2173
液	-10.2173
を行っていた	-10.2173
落ち	-10.218
ブレ	-10.2185
月場所	-10.2186
ヘンリー	-10.2187
身体	-10.2189
シャン	-10.2192
姉妹	-10.2192
ck	-10.2194
を中心とした	-10.2198
左右	-10.2199
トレ	-10.2199
ly	-10.2202
スカ	-10.2202
晴	-10.2207
飛び	-10.2213
ho	-10.2213
発言	-10.2214
大学院	-10.2215
以降の	-10.2215
王者	-10.2216
フレ	-10.2217
地元の	-10.222
性の	-10.2225
写	-10.223
研究者	-10.2231
ポルトガル	-10.2231
中止	-10.2237
-5	-10.2244
当たり	-10.2247
個の	-10.2251
長さ	-10.2254
子は	-10.2254
得	-10.2258
虎	-10.2259
ワイン	-10.2262
よい	-10.2264
有効	-10.2267
主体	-10.2269
由来	-10.227
と思われる	-10.228
をもつ	-10.2285
""	-10.2286
司令官	-10.2286
審査	-10.2291
間に	-10.2296
未来	-10.2298
di	-10.2301
ロサンゼルス	-10.2303
そこで	-10.2307
記憶	-10.2309
こそ	-10.2313
76	-10.2314
年代の	-10.2316
再建	-10.2323
その他	-10.2328
☆	-10.2329
禁	-10.2329
捜査	-10.2336
にまで	-10.2338
両親	-10.234
没	-10.234
防御率	-10.2341
1997	-10.2343
兵庫県	-10.2348
危険	-10.235
▁1960	-10.2352
画像	-10.2356
ウィン	-10.2356
許可	-10.2356
保有	-10.236
このような	-10.236
全く	-10.236
整	-10.2362
検	-10.2363
芳	-10.237
数字	-10.2374
に相当する	-10.2376
長く	-10.2383
トーク	-10.2384
ケル	-10.2387
寛	-10.2388
si	-10.2396
メール	-10.2397
単に	-10.2398
政治家	-10.2398
ても	-10.2399
が可能	-10.2401
わずか	-10.2403
費用	-10.2405
が行われている	-10.2405
分け	-10.2406
ながらも	-10.2407
カット	-10.2411
を得て	-10.2416
たか	-10.2417
が見られる	-10.2419
アカデミー	-10.242
ジョー	-10.2422
ティング	-10.2425
月号	-10.2427
状態で	-10.2433
加入	-10.2434
クロス	-10.2435
されない	-10.244
bo	-10.2444
プロデュース	-10.2444
は主に	-10.2447
▁以後	-10.245
することになった	-10.2453
夫人	-10.2453
ja	-10.2454
刺	-10.2456
当初	-10.2457
▁身長	-10.2462
現場	-10.2464
姿勢	-10.247
石油	-10.247
場合がある	-10.2471
友人	-10.2472
扉	-10.2478
機種	-10.2479
なければ	-10.248
材料	-10.2481
患者	-10.2483
の意味	-10.2486
1996	-10.2488
おか	-10.2488
、1980	-10.2497
を発表した	-10.2497
の名称	-10.2501
ショ	-10.2501
清水	-10.2501
東西	-10.2503
ンズ	-10.2503
注意	-10.2505
衛	-10.251
短い	-10.2516
アメリカン	-10.2518
so	-10.2519
を用いる	-10.252
年生	-10.2522
てしまった	-10.2524
▁この時	-10.2527
温度	-10.2528
▁j	-10.2531
フェル	-10.2532
に当たる	-10.2533
遠征	-10.2533
プル	-10.2538
激しい	-10.254
展	-10.2548
込んで	-10.2549
陵	-10.2556
アニメーション	-10.2559
通過	-10.2566
パイロット	-10.2568
果	-10.257
北京	-10.257
に就任した	-10.2571
サポート	-10.2575
松本	-10.2576
を発表	-10.2577
ウッド	-10.2578
理事	-10.2578
中国の	-10.2578
楽器	-10.2579
分布	-10.2583
保険	-10.2585
完全に	-10.2585
▁i	-10.2585
敏	-10.2588
対戦	-10.2588
°	-10.2589
静岡県	-10.2592
駅前	-10.2593
軒	-10.2594
られていた	-10.2594
勇	-10.2598
学習	-10.26
ベルト	-10.26
万ドル	-10.2603
を使用する	-10.2604
と同	-10.2607
市にある	-10.261
人で	-10.2614
工学	-10.2618
施行	-10.262
人々	-10.2623
刑事	-10.2625
オフ	-10.2627
劇団	-10.2631
ガラス	-10.2632
オーバー	-10.2639
ai	-10.2639
95	-10.2641
大きい	-10.2646
資源	-10.2647
創立	-10.2648
文献	-10.265
の建設	-10.2652
カリ	-10.2652
87	-10.2657
ヘン	-10.2659
つつ	-10.2662
再度	-10.2663
虫	-10.267
次第に	-10.267
種類の	-10.2671
に生まれる	-10.2672
を目指す	-10.2679
価値	-10.268
先に	-10.2683
案内	-10.2693
勤務	-10.2693
スは	-10.27
句	-10.2701
ph	-10.2702
照	-10.2715
ネー	-10.2715
入団	-10.2716
事業者	-10.2716
期の	-10.2717
フィー	-10.2718
小さい	-10.2719
背景	-10.2722
シス	-10.2722
チームは	-10.2728
進化	-10.2729
ex	-10.2732
でもあった	-10.2735
政府は	-10.2736
)11	-10.2737
サブ	-10.274
mc	-10.274
されること	-10.274
改修	-10.2741
ation	-10.2741
彼らの	-10.2753
同一	-10.2754
誕生	-10.2756
ろう	-10.2757
側は	-10.2762
遅れ	-10.2762
んでいる	-10.2767
と同様	-10.2768
深夜	-10.2768
廃止された	-10.2769
ジャンル	-10.2771
1995	-10.2771
ネル	-10.2779
全長	-10.2779
単独	-10.278
実際の	-10.2781
リード	-10.2786
クト	-10.2792
駅から	-10.2795
世界選手権	-10.2795
フィリピン	-10.28
交代	-10.28
崩壊	-10.2802
の他	-10.2803
戦隊	-10.2809
:"	-10.2816
アクセス	-10.2816
内部	-10.2818
麻	-10.2818
_1	-10.2822
上海	-10.2824
尚	-10.2824
妹	-10.2824
ビッグ	-10.2828
といわれる	-10.2832
を作る	-10.2841
神話	-10.2843
皇	-10.2843
も存在する	-10.2846
逆に	-10.2847
、2002	-10.2848
▁1988	-10.2854
マッ	-10.2856
ol	-10.2857
を持った	-10.2857
本名	-10.2858
ラブ	-10.2859
復	-10.2861
人民	-10.2865
フジテレビ	-10.2869
をしていた	-10.2869
シカゴ	-10.2876
イラスト	-10.2878
昇	-10.2879
.1	-10.288
注	-10.2881
ための	-10.2882
一覧	-10.2883
代わりに	-10.2886
に移籍	-10.2888
のもと	-10.2889
卒	-10.2894
ドリ	-10.2898
負担	-10.2901
当選	-10.2903
スコットランド	-10.2904
中間	-10.2907
復興	-10.2909
普及	-10.2913
しま	-10.2913
ベトナム	-10.2914
ドライバー	-10.2915
再開	-10.2919
リズム	-10.292
脇	-10.2923
かな	-10.2926
全員	-10.2929
ならば	-10.293
らは	-10.2933
灯	-10.2935
沈	-10.2936
ここ	-10.2944
ものと	-10.2945
することを	-10.2947
音声	-10.2948
▁当時の	-10.2949
アム	-10.2949
ec	-10.2951
抗	-10.2954
高等	-10.2958
ステークス	-10.2959
1960	-10.296
遺伝子	-10.2969
コスト	-10.2969
縦	-10.297
69	-10.297
伊藤	-10.2971
われ	-10.2975
的には	-10.298
さい	-10.2982
彼女	-10.2984
判定	-10.2985
であったため	-10.2987
加盟	-10.2992
チャン	-10.2992
印刷	-10.2997
する事	-10.2998
少し	-10.3002
作詞	-10.3002
流通	-10.3003
)7	-10.3004
に向けて	-10.3008
になっていた	-10.3011
小林	-10.3016
外国	-10.3017
中世	-10.3021
79	-10.3026
ab	-10.3035
作成	-10.3036
巻き	-10.304
ヴァル	-10.3043
シーズンは	-10.3049
フランス語	-10.3056
▁co	-10.3061
開幕	-10.3065
神奈川県	-10.3067
登板	-10.3069
墓	-10.3072
アク	-10.3073
四国	-10.3077
沿岸	-10.3078
アメリカ軍	-10.3088
玄	-10.3091
ネイ	-10.3091
あたり	-10.3098
加工	-10.31
動画	-10.31
浪	-10.3114
行った	-10.3115
帰還	-10.3115
艇	-10.3116
気候	-10.3116
ということ	-10.3118
二人	-10.3118
由	-10.312
として知られる	-10.3121
掛け	-10.3122
制定	-10.3126
時点で	-10.313
▁1987	-10.3132
敷	-10.3132
こともあった	-10.3134
ディング	-10.3135
ダウン	-10.3136
外交	-10.3137
力を	-10.3142
先発	-10.3143
絵画	-10.3148
ru	-10.3149
スイス	-10.3151
地名	-10.3153
されなかった	-10.3153
それら	-10.3158
してしまう	-10.3159
ヴィン	-10.3159
加藤	-10.3162
るが	-10.3162
給	-10.3162
少将	-10.3162
観客	-10.317
東洋	-10.3178
覚	-10.3178
算	-10.3181
収入	-10.3186
ヴィー	-10.3189
かなり	-10.3196
議長	-10.3196
らい	-10.3198
▁la	-10.3199
隠	-10.3201
福岡県	-10.3208
との間に	-10.3215
部品	-10.3217
リリースされた	-10.3224
ウィーン	-10.3225
マッチ	-10.3225
手段	-10.3226
大手	-10.3226
ロボット	-10.3228
酸化	-10.3233
線路	-10.3235
現役	-10.3236
ベルギー	-10.3238
痛	-10.3239
サム	-10.3243
書籍	-10.3246
肩	-10.3246
岳	-10.3256
移民	-10.3256
旅客	-10.3259
メー	-10.326
こととなった	-10.3261
胸	-10.3265
することが	-10.3267
柔道	-10.327
現実	-10.3271
投げ	-10.3272
160	-10.3272
デモ	-10.3274
レル	-10.3274
アイテム	-10.3276
ジャズ	-10.3279
駒	-10.3281
ブロ	-10.3282
司法	-10.3285
!!	-10.3289
最多	-10.3291
活躍	-10.3296
臨時	-10.3296
故障	-10.3298
紅	-10.3299
ミュージシャン	-10.3301
北朝鮮	-10.331
巣	-10.331
age	-10.3317
変換	-10.3317
原則	-10.3322
が異なる	-10.3323
体系	-10.3332
個体	-10.3337
体重	-10.3339
海上	-10.3342
無料	-10.3343
病気	-10.3345
テレビアニメ	-10.3346
修道院	-10.3347
彼ら	-10.3348
120	-10.336
前作	-10.3361
証明	-10.3363
良い	-10.3364
の父	-10.3365
又は	-10.3368
行う	-10.337
ヘッド	-10.3371
若い	-10.3372
のに対し	-10.3372
労	-10.3376
ワー	-10.3385
トゥー	-10.3389
項目	-10.3395
継	-10.3408
概念	-10.3408
の際	-10.3409
幹部	-10.341
アート	-10.3411
ヒト	-10.3413
頃から	-10.3414
▁1986	-10.3417
▁これら	-10.3418
福島	-10.3421
テー	-10.3422
リュー	-10.3424
im	-10.3429
提案	-10.3431
妙	-10.3434
録	-10.3434
1994	-10.3435
番目の	-10.3435
ないし	-10.3437
程度の	-10.3437
負け	-10.3442
スポンサー	-10.3445
デンマーク	-10.3455
習	-10.3457
ts	-10.3458
合同	-10.3462
低い	-10.3467
東日本	-10.347
であろう	-10.3471
-7	-10.3473
がわ	-10.3475
台車	-10.3476
ナル	-10.3477
の地位	-10.3479
譲	-10.3479
常に	-10.3479
プロレス	-10.348
新規	-10.3481
西日本	-10.3481
イラン	-10.3488
ザン	-10.3492
5000	-10.3498
男女	-10.3499
牧	-10.35
岐阜県	-10.3501
カトリック	-10.3507
ツァ	-10.3509
父の	-10.3514
人と	-10.3516
記号	-10.3523
新潟	-10.3525
芝	-10.3526
ネタ	-10.3532
屋根	-10.3535
テロ	-10.3535
大学で	-10.3544
1993	-10.3549
、2001	-10.3553
定期	-10.3554
舎	-10.3555
ガイ	-10.3559
症状	-10.3562
如	-10.3567
めた	-10.3567
順位	-10.357
賞を受賞	-10.357
を開始	-10.3571
モル	-10.3576
広場	-10.3577
必要がある	-10.3581
斉	-10.3581
1992	-10.3582
ve	-10.3583
▁ここで	-10.3589
、1970	-10.359
高く	-10.3591
斎	-10.3594
区分	-10.3599
岡山	-10.36
政治的	-10.3604
至	-10.3609
之助	-10.361
開通	-10.361
顧問	-10.3612
の多くは	-10.3612
措置	-10.3614
C	-10.3614
ひろ	-10.3617
れた	-10.3618
▁r	-10.3619
著	-10.3624
一般に	-10.3625
ント	-10.3627
翻訳	-10.3633
負傷	-10.364
活	-10.364
と言われている	-10.3645
らず	-10.3649
)9	-10.3651
母親	-10.3651
強制	-10.3654
ラグビー	-10.3657
レコーディング	-10.3661
日現在	-10.3661
義務	-10.3663
に終わった	-10.3664
ボス	-10.3667
開発された	-10.3669
のみならず	-10.3674
形成	-10.3682
io	-10.3683
高度	-10.3687
上映	-10.3688
共産党	-10.3689
両編成	-10.3689
秋田	-10.3691
奴隷	-10.3691
を担当した	-10.3695
色の	-10.3697
憲	-10.3699
豪	-10.3699
の中でも	-10.3699
作品は	-10.3699
ir	-10.37
できず	-10.3704
寄り	-10.3704
臨	-10.3705
)8	-10.3706
絶対	-10.3707
▁1985	-10.3708
負	-10.371
空軍	-10.3721
全体の	-10.3722
料金	-10.3723
系列	-10.3725
していった	-10.3725
ロール	-10.3726
ぞ	-10.3727
弥	-10.3734
上野	-10.3738
人生	-10.3744
転換	-10.3749
人間の	-10.3757
nd	-10.3757
で放送された	-10.3758
屋敷	-10.376
示	-10.3762
マイケル	-10.3763
74	-10.3764
を果たす	-10.3765
成分	-10.3766
誠	-10.3766
測定	-10.377
モンゴル	-10.3771
per	-10.3771
証拠	-10.3771
ホワイト	-10.3777
梁	-10.3782
そのもの	-10.3782
歌詞	-10.3784
を使った	-10.3787
それに	-10.379
かれ	-10.3792
▁v	-10.3793
ストリート	-10.3797
興行	-10.3801
は全て	-10.3805
やがて	-10.3808
さえ	-10.3808
貫	-10.3809
違い	-10.381
インチ	-10.381
▁me	-10.3816
-8	-10.3817
離脱	-10.3818
浅	-10.3818
執行	-10.3818
97	-10.3819
にいた	-10.3821
ブラン	-10.3828
つけ	-10.383
選抜	-10.3831
op	-10.3841
下り	-10.3843
投入	-10.3848
するもの	-10.3851
王子	-10.3851
場面	-10.3852
買収	-10.3854
軍人	-10.3857
談	-10.3858
桃	-10.386
集中	-10.3861
それらの	-10.3863
性格	-10.3863
に伴う	-10.3864
合う	-10.3865
オリ	-10.3865
伸び	-10.3866
砦	-10.3866
ジム	-10.3866
年頃	-10.3867
はじめ	-10.3867
su	-10.387
焼き	-10.387
災害	-10.3872
株式	-10.3872
があるが	-10.3874
桁	-10.3876
作品の	-10.3877
桂	-10.3878
返	-10.3882
資産	-10.3884
働き	-10.3885
▁x	-10.3887
深く	-10.3887
方言	-10.3888
侯	-10.3889
チャールズ	-10.3893
▁北	-10.3896
から発売された	-10.3896
どの	-10.3899
一連の	-10.3901
儀	-10.3907
に基づき	-10.3907
事務	-10.3911
守護	-10.3918
ることができる	-10.3918
自転車	-10.392
中山	-10.3923
公共	-10.3925
無線	-10.3927
価	-10.3927
を使う	-10.3928
洞	-10.3928
ラウ	-10.3931
下の	-10.3934
利用者	-10.3937
を最後に	-10.3939
1991	-10.394
往復	-10.3941
シート	-10.3942
適用	-10.3944
猫	-10.3944
一族	-10.3947
▁be	-10.3951
人類	-10.3952
分解	-10.3952
同様に	-10.3954
サウンド	-10.3955
89	-10.3957
試み	-10.3957
札	-10.3957
ディスク	-10.3959
の戦いで	-10.396
レオ	-10.396
奇	-10.3961
一つ	-10.3964
北西	-10.3965
近い	-10.3966
命名	-10.3968
可能性がある	-10.3968
相当	-10.3975
殺害	-10.3975
事実上	-10.3976
話題	-10.3977
居住	-10.3979
かけ	-10.3979
伝承	-10.3982
補助	-10.3982
これに	-10.3983
池田	-10.3983
ap	-10.3983
と言われる	-10.3983
wa	-10.3983
活用	-10.3985
96	-10.3986
▁このとき	-10.3988
表面	-10.3988
井上	-10.3988
ウェル	-10.399
追い	-10.3991
カム	-10.3991
須	-10.3995
人である	-10.3999
現在でも	-10.4002
子が	-10.4003
スコ	-10.4006
iii	-10.4007
亀	-10.4007
予想	-10.4008
▁彼の	-10.4008
あらゆる	-10.4009
ジェームズ	-10.4016
まち	-10.4017
進行	-10.4017
軍が	-10.4019
jo	-10.4019
渡辺	-10.4021
ばかり	-10.4027
襲撃	-10.4027
フィンランド	-10.4029
魂	-10.4031
用に	-10.4031
を持って	-10.4033
▁東	-10.4034
日本代表	-10.4035
ロウ	-10.4037
南北	-10.4038
新幹線	-10.4044
世が	-10.4047
主催	-10.4048
区別	-10.4049
利益	-10.4051
新人	-10.4051
援助	-10.4052
しばらく	-10.4052
合意	-10.4053
判	-10.4055
市街地	-10.4055
緊急	-10.4059
県道	-10.4061
乗り	-10.4062
印象	-10.4064
シリーズの	-10.4066
除	-10.4068
しき	-10.4068
周辺の	-10.4077
用途	-10.4077
打撃	-10.4077
試合で	-10.4078
以前	-10.4083
72	-10.4084
ライフ	-10.4085
過程	-10.4086
net	-10.4092
時点	-10.4096
かり	-10.4096
性質	-10.4099
社会主義	-10.41
ソウル	-10.41
700	-10.4101
を見せ	-10.4101
敗北	-10.4104
▁1984	-10.4104
するまで	-10.4107
世界の	-10.4112
閉鎖	-10.4113
ur	-10.4116
同様の	-10.4117
地方の	-10.4119
目の	-10.4119
王朝	-10.4122
銀河	-10.4123
茨城県	-10.4131
くる	-10.4132
ドイツ語	-10.4135
郡の	-10.4137
の中には	-10.4137
に加えて	-10.414
▁その後も	-10.414
va	-10.4141
マリー	-10.4142
部に	-10.4145
洲	-10.4146
よし	-10.415
卿	-10.4154
護衛	-10.4156
東映	-10.4156
直後に	-10.4157
▁株式会社	-10.4157
夕	-10.4158
安打	-10.4158
年代から	-10.4158
をリリース	-10.416
念	-10.4161
がなく	-10.4164
捕虜	-10.4164
免許	-10.4164
彩	-10.4166
との関係	-10.4166
ニング	-10.4166
巨人	-10.4169
移籍	-10.417
脱退	-10.417
に応じて	-10.4172
原題	-10.4172
逮捕	-10.4172
袋	-10.4173
地に	-10.4179
死去した	-10.418
練	-10.4181
を見て	-10.4181
実績	-10.4182
一帯	-10.4182
南西	-10.4183
危機	-10.4188
fe	-10.4189
当該	-10.4192
ゲイ	-10.4192
日本で	-10.4201
籍	-10.4206
エース	-10.4206
切れ	-10.4211
1989	-10.4212
スピード	-10.4214
続けた	-10.4217
公認	-10.4217
決	-10.4221
せる	-10.4223
▁1945	-10.4225
、2018	-10.4225
バトル	-10.4225
載	-10.4233
自動車道	-10.4238
浩	-10.4239
司令部	-10.4241
支部	-10.4249
民主	-10.4249
流行	-10.425
の対象	-10.4251
犯	-10.4256
ッド	-10.4261
アマチュア	-10.4262
ロング	-10.4264
ヤード	-10.4264
閉	-10.4265
推定	-10.4265
は非常に	-10.4266
ビア	-10.427
iv	-10.4273
は日本の	-10.4274
ラル	-10.428
記者	-10.4281
放送局	-10.4283
新潟県	-10.4286
ボディ	-10.4287
寝	-10.4291
監視	-10.4293
塾	-10.4293
予備	-10.4293
解析	-10.4296
生命	-10.4296
財産	-10.4297
回の	-10.4298
ッタ	-10.4307
に基づいて	-10.431
の上	-10.4311
演	-10.4312
大阪市	-10.4315
軍隊	-10.4316
頭部	-10.4316
日に行われた	-10.4318
ステーション	-10.4323
端末	-10.4329
発足	-10.4336
web	-10.4337
リーグ戦	-10.4337
を与える	-10.434
上下	-10.4344
判決	-10.4347
優れた	-10.4348
北東	-10.4349
ヤー	-10.4356
が始まった	-10.4356
鳴	-10.4358
なん	-10.4358
▁u	-10.4359
に選ばれた	-10.4365
いている	-10.4367
最初に	-10.4368
ジャケット	-10.437
エレ	-10.4371
観察	-10.4373
魔法	-10.4375
一家	-10.4375
庫	-10.4376
版の	-10.4377
社員	-10.4382
数学	-10.4383
独立した	-10.4383
祐	-10.4386
毎日	-10.4386
欠	-10.4387
厚	-10.439
雷	-10.4391
ート	-10.4392
雇用	-10.4394
さない	-10.4395
▁ちなみに	-10.4395
役割	-10.4398
採	-10.4399
末期	-10.4401
先行	-10.4402
益	-10.4406
棒	-10.4406
一定の	-10.4406
本人	-10.4406
修理	-10.442
の方が	-10.4424
奈良	-10.4425
ver	-10.4427
歩兵	-10.443
議席	-10.4431
250	-10.4434
通行	-10.4437
執	-10.4451
イタリアの	-10.4454
平日	-10.4455
巡	-10.4455
フロント	-10.4455
強く	-10.4456
穂	-10.446
唯一	-10.4461
カレッジ	-10.4461
プロ野球	-10.4462
)、『	-10.4462
ほとんどの	-10.4463
最後に	-10.4463
po	-10.4466
ジャンプ	-10.4467
使われ	-10.447
大佐	-10.4478
かつての	-10.4478
見る	-10.4485
3000	-10.4485
国会	-10.4486
カス	-10.4488
分裂	-10.4489
づ	-10.4491
基礎	-10.4497
にした	-10.4498
過去に	-10.4504
火山	-10.4505
かどうか	-10.4506
入力	-10.4507
弟子	-10.4507
されると	-10.4511
スル	-10.4511
うる	-10.4512
もっとも	-10.4512
▁1983	-10.4512
主力	-10.4515
世帯	-10.4517
ラウンド	-10.4519
の高い	-10.4521
に向かう	-10.4521
前述の	-10.4523
笠	-10.4525
使い	-10.4527
ブラウン	-10.4532
出された	-10.4532
双	-10.4535
に次ぐ	-10.4537
旨	-10.4537
数が	-10.4547
石川	-10.4547
偽	-10.455
チュー	-10.4552
寺院	-10.4556
に乗り	-10.456
》	-10.4561
したのは	-10.4562
《	-10.4563
季	-10.4566
編曲	-10.4567
委員長	-10.4568
戻	-10.457
が開始された	-10.4572
に合わせて	-10.4572
優先	-10.4578
ie	-10.458
座席	-10.4581
単行本	-10.4581
トーナメント	-10.4585
▁l	-10.459
球場	-10.4591
狭	-10.4596
キロ	-10.4597
ごく	-10.4598
日発売	-10.4598
しているが	-10.4599
ブック	-10.4601
全域	-10.4602
ィ	-10.4607
歴	-10.4609
バイパス	-10.4609
ニック	-10.4611
を獲得	-10.4613
となったが	-10.4615
抜き	-10.4619
約束	-10.4619
朱	-10.462
中華人民共和国	-10.4621
eu	-10.4621
言い	-10.4622
蓮	-10.4623
水素	-10.4624
警備	-10.4625
財	-10.4626
)6	-10.4626
駅間	-10.4629
誘導	-10.4629
ウイルス	-10.4631
女王	-10.4632
73	-10.4633
暗殺	-10.4635
年の第	-10.4635
テニス	-10.4637
滑	-10.4638
待	-10.4641
に変更された	-10.4643
したという	-10.4644
少なくとも	-10.4645
創業	-10.4645
アルゼンチン	-10.4645
引き続き	-10.4646
政府の	-10.4646
リーグの	-10.4649
)5	-10.465
消費	-10.4651
回目の	-10.4651
を除き	-10.4652
歳の	-10.4652
を持っていた	-10.4652
西洋	-10.4652
ノルウェー	-10.4655
沙	-10.4663
コンセプト	-10.4665
コレクション	-10.4666
本来	-10.4667
熊	-10.4672
戦艦	-10.4672
来日	-10.4673
を代表する	-10.4673
資本	-10.4676
文明	-10.468
グレ	-10.468
詞	-10.4681
パート	-10.4682
主要な	-10.4683
ものもある	-10.4684
連結	-10.4685
滅	-10.469
三菱	-10.469
イヤー	-10.4692
に出	-10.4692
▁小	-10.4694
ion	-10.4694
-9	-10.4697
二つの	-10.4697
を始める	-10.4701
使われている	-10.4702
ガンダム	-10.4702
いたが	-10.4709
願	-10.4709
プラン	-10.4712
ゼロ	-10.4714
周囲	-10.4715
見解	-10.4718
森林	-10.4718
有力	-10.4719
再編	-10.4719
180	-10.472
宣伝	-10.4722
の死	-10.4723
弓	-10.4723
uefa	-10.4724
最優秀	-10.4725
リチャード	-10.4725
払	-10.4728
売却	-10.4729
の記録	-10.473
の姿	-10.4732
菊	-10.4736
挙	-10.4736
▁al	-10.4738
要因	-10.4741
の仕事	-10.4741
ヴィル	-10.4742
今日	-10.4743
マスター	-10.4745
経緯	-10.4746
_	-10.4746
放送された	-10.475
バーン	-10.4751
効率	-10.4752
川崎	-10.4752
ハート	-10.4755
ただ	-10.4755
▁その後は	-10.4757
でない	-10.4759
、1999	-10.4761
の乱	-10.4766
ッカ	-10.4767
私立	-10.477
▁ポジションは	-10.4771
ya	-10.4772
競馬場	-10.4772
ーニ	-10.4779
▁1950	-10.4781
84	-10.4783
であっても	-10.4784
済	-10.4784
組み	-10.4787
出来事	-10.4787
主な	-10.479
消防	-10.4791
帳	-10.4791
奉	-10.4794
ファッション	-10.4795
使用する	-10.4797
本体	-10.4798
コス	-10.4799
特性	-10.48
ブルク	-10.4805
エリ	-10.4805
刊	-10.4808
の問題	-10.4809
学術	-10.481
侍	-10.4814
▁これが	-10.4814
申請	-10.4815
国際空港	-10.4822
激	-10.4823
防止	-10.4823
宏	-10.4823
自社	-10.4827
ストラ	-10.4828
初め	-10.4834
漢字	-10.4834
ード	-10.4835
1988	-10.4839
後述	-10.484
バーグ	-10.4842
▁1982	-10.4846
コンビ	-10.4847
らしい	-10.4852
続	-10.4852
消滅	-10.4854
演技	-10.4856
極めて	-10.4859
詩人	-10.4863
かく	-10.4864
号機	-10.4865
と語っている	-10.4874
という言葉	-10.4875
キャンパス	-10.4878
フラン	-10.4879
粒子	-10.4882
てん	-10.4883
オート	-10.4885
コート	-10.4886
低下	-10.4886
大隊	-10.489
離婚	-10.4891
平野	-10.4892
育成	-10.4895
メッセージ	-10.4896
の意	-10.4896
の違い	-10.4901
作られた	-10.4902
言及	-10.4904
著書	-10.4904
ポジション	-10.4908
承認	-10.4908
ける	-10.4912
年後の	-10.4914
の死後	-10.4914
適	-10.4915
経路	-10.4915
▁〜	-10.4917
韓	-10.492
に向かって	-10.492
の新	-10.4925
火災	-10.4925
ツー	-10.4926
自民党	-10.4926
枚目のシングル	-10.493
暴	-10.493
取締役	-10.493
付属	-10.4931
地形	-10.4933
月現在	-10.4934
課程	-10.4934
ビュー	-10.4935
で最も	-10.4935
陸上	-10.4937
長野県	-10.4949
合わせ	-10.4949
一致	-10.495
を利用して	-10.4953
を作り	-10.4953
ローカル	-10.4954
機会	-10.4954
発売された	-10.4955
大将	-10.4957
感じ	-10.4959
メス	-10.4962
始める	-10.4965
分岐	-10.4966
僕	-10.4966
時代は	-10.4968
発音	-10.497
郵便局	-10.4971
右衛門	-10.4972
打点	-10.4972
ウォー	-10.4973
挑戦	-10.4974
ローズ	-10.4976
北米	-10.4977
しりつ	-10.498
封	-10.498
山の	-10.4982
ロイ	-10.4983
世紀に	-10.4983
を出した	-10.4983
▁ma	-10.4985
古典	-10.499
ムー	-10.4995
邸	-10.4999
賞を受賞した	-10.4999
ボーカル	-10.5001
発明	-10.5001
薄	-10.5002
寒	-10.5003
好き	-10.5003
三重県	-10.5004
糖	-10.5007
腰	-10.501
▁14	-10.5012
ユース	-10.5012
線が	-10.5013
てい	-10.5015
モノ	-10.5016
開業した	-10.5017
ているが	-10.5017
に入社	-10.5017
もまた	-10.5018
グランド	-10.5019
総督	-10.5022
訴訟	-10.5023
▁ただ	-10.5025
携帯電話	-10.503
の一種	-10.5032
が大きく	-10.5034
を描く	-10.5038
んでいた	-10.5041
大字	-10.5041
▁ところが	-10.505
大使	-10.5051
基盤	-10.5053
を使用した	-10.5057
lu	-10.5062
売り	-10.5064
るなど	-10.5065
cs	-10.5067
所属の	-10.5073
京都府	-10.5073
回戦	-10.5073
供	-10.5074
bi	-10.5075
windows	-10.5077
レーダー	-10.5078
クラシック	-10.5078
パイ	-10.5082
そのような	-10.5084
電鉄	-10.509
の中では	-10.5091
立候補	-10.5091
嶋	-10.5093
当局	-10.5094
操縦	-10.5095
ブーム	-10.5095
福祉	-10.51
リーダー	-10.51
パターン	-10.51
名義	-10.5101
紹介	-10.5109
外部	-10.5111
正式	-10.5114
バッハ	-10.5114
クリア	-10.5116
ボックス	-10.5117
ジェット	-10.5118
ment	-10.5119
著作	-10.5122
der	-10.5123
事例	-10.5128
ゴールド	-10.5129
存続	-10.5132
るため	-10.5132
福島県	-10.5134
甲板	-10.5138
死亡した	-10.5138
と呼ばれている	-10.5143
▁13	-10.5144
紛争	-10.5144
しゅう	-10.5146
父親	-10.5146
ることになった	-10.5148
が高く	-10.5152
ton	-10.5152
聴	-10.5152
原子	-10.5154
五郎	-10.5157
tt	-10.5159
メント	-10.5163
商人	-10.5166
同時	-10.5168
出発	-10.5168
のお	-10.5168
年以上	-10.5171
ついに	-10.5174
現地	-10.5177
相撲	-10.5178
車の	-10.5178
隣	-10.5178
海洋	-10.5181
海峡	-10.5182
レール	-10.5183
損傷	-10.5184
カリフォルニア州	-10.5195
1987	-10.5201
天文	-10.5202
があったが	-10.5203
伝統	-10.5204
▁1979	-10.5204
時から	-10.5205
なので	-10.5207
笑	-10.5207
をはじめとする	-10.5208
巨大な	-10.5209
じん	-10.5209
するようになった	-10.5218
数多くの	-10.5222
の上に	-10.5223
因	-10.5224
ロシアの	-10.5224
時間帯	-10.5225
ヨー	-10.5228
事を	-10.5229
運航	-10.523
鼻	-10.5236
▁se	-10.5239
資	-10.524
ウン	-10.5243
170	-10.5245
に参加し	-10.5245
航海	-10.5246
生涯	-10.5247
猛	-10.5249
確定	-10.5253
一つの	-10.5253
伯爵	-10.5256
模様	-10.5257
ヤング	-10.5258
ズの	-10.5258
連勝	-10.5258
セー	-10.5259
拒否	-10.5259
スキ	-10.5259
祭り	-10.526
上がり	-10.5261
南東	-10.5261
ナンバー	-10.5262
するも	-10.5262
そこに	-10.5263
コロ	-10.5264
スミス	-10.5265
授業	-10.5265
が設置されている	-10.5266
主題	-10.527
いくつか	-10.5273
▁かつて	-10.5274
抗議	-10.5275
ギー	-10.5277
に出場	-10.5279
明らかに	-10.5285
茎	-10.5286
時代には	-10.5286
やや	-10.5286
幼	-10.5287
ドール	-10.5288
氏は	-10.5293
出来る	-10.5294
鉄道の	-10.5296
解除	-10.5296
山地	-10.5297
空母	-10.5297
偏	-10.5303
希望	-10.5303
ではあるが	-10.5304
じゅう	-10.5305
ここで	-10.5305
地位	-10.5306
フランク	-10.5306
正規	-10.5307
地区の	-10.5312
舟	-10.5312
の他に	-10.5313
指揮官	-10.5318
職業	-10.5319
織	-10.532
曹	-10.5321
パフォーマンス	-10.5322
スパイ	-10.5323
紫	-10.5323
に所属する	-10.5324
と述べた	-10.5326
高級	-10.5328
バート	-10.5329
熊本	-10.5331
えた	-10.5332
べく	-10.5332
キャスト	-10.5337
リスク	-10.5338
増加	-10.5338
ゼン	-10.5344
、1998	-10.5348
栗	-10.5351
ショップ	-10.5358
の製造	-10.5358
支	-10.536
ian	-10.536
協	-10.5361
彼女は	-10.5364
剛	-10.5365
コミュニティ	-10.5366
ポスト	-10.5366
浮	-10.5368
ゆき	-10.5369
bu	-10.537
によっては	-10.5371
疾患	-10.5371
ーナ	-10.5372
きゅう	-10.5373
グループの	-10.5374
パソコン	-10.5377
チャート	-10.5383
▁1981	-10.5385
の位置	-10.5391
なかったため	-10.5394
ライセンス	-10.5394
手術	-10.5395
の中から	-10.5396
は第	-10.5396
応用	-10.5397
に含まれる	-10.5399
たる	-10.5403
した場合	-10.5403
対抗	-10.5403
植	-10.5404
際には	-10.5405
置き換え	-10.5406
種の	-10.5408
寮	-10.5411
レストラン	-10.5413
張り	-10.5415
闘	-10.5415
うえ	-10.5424
がその	-10.5427
コア	-10.5431
自分が	-10.5432
ボタン	-10.5433
つまり	-10.5434
指示	-10.5434
前半	-10.5435
ピア	-10.5438
本編	-10.5438
過去の	-10.5445
人工	-10.545
空襲	-10.5454
わない	-10.5454
所有	-10.5458
を構成する	-10.5459
辞	-10.546
に入団	-10.5461
sh	-10.5467
らと	-10.5468
向けに	-10.5469
家は	-10.5469
ゆう	-10.5469
旅団	-10.5469
内容は	-10.5469
投稿	-10.5471
ディン	-10.5477
体の	-10.5477
▁他の	-10.5481
tr	-10.5484
ていなかった	-10.5488
に比べて	-10.5488
八幡	-10.5491
開設	-10.5492
を元に	-10.5494
ずに	-10.5495
冒険	-10.5497
伸	-10.5497
不動産	-10.5498
を失った	-10.5501
堅	-10.5503
鹿児島	-10.5504
一定	-10.5506
教員	-10.5507
希	-10.5507
dr	-10.5507
古くから	-10.5512
休止	-10.5514
ターミナル	-10.5514
を認め	-10.5515
、1960	-10.5519
大名	-10.5523
局長	-10.5523
▁20	-10.5525
の女性	-10.5526
午後	-10.5527
道具	-10.5534
ディズニー	-10.5536
一旦	-10.5536
律	-10.5536
▁1972	-10.5537
鎌倉	-10.5538
グロ	-10.5539
vo	-10.5539
おう	-10.5539
で初めて	-10.554
訪問	-10.5543
広い	-10.5543
厳しい	-10.5544
課題	-10.5544
鑑	-10.5544
こうした	-10.5549
感染	-10.555
はこれ	-10.5551
亡命	-10.5552
蘭	-10.5553
1985	-10.5553
を除いて	-10.5555
まつ	-10.5556
なくなる	-10.5556
の設計	-10.5558
を設立	-10.556
ウェスト	-10.5561
gt	-10.5563
とは異なり	-10.5564
統	-10.5564
もり	-10.557
その後も	-10.5572
粉	-10.5573
られて	-10.5576
▁西	-10.5579
かず	-10.558
領土	-10.5582
敗戦	-10.5585
篇	-10.5586
質量	-10.5591
困難	-10.5592
に従って	-10.5593
ルイス	-10.5594
1986	-10.5594
腸	-10.5595
▁戦後	-10.5596
に出演	-10.5598
皆	-10.5599
などから	-10.5599
ヘイ	-10.56
起用	-10.5603
山城	-10.5604
ボストン	-10.5604
銭	-10.5607
同社の	-10.5607
ゲー	-10.5607
あき	-10.5608
整理	-10.5609
揚	-10.5611
出資	-10.5614
収容	-10.5615
ブログ	-10.5616
の妻	-10.5616
パートナー	-10.5616
シナリオ	-10.5617
実装	-10.5619
▁n	-10.562
手紙	-10.5621
中には	-10.5621
選出	-10.5622
北方	-10.5627
日本軍	-10.5627
間で	-10.5628
▁こうして	-10.5631
に所属していた	-10.5635
",	-10.5638
部は	-10.5638
ソニー	-10.564
を取る	-10.5642
パッケージ	-10.5643
頃に	-10.5644
▁&	-10.5646
否定	-10.5647
がこの	-10.5648
係	-10.5652
pp	-10.5654
作品である	-10.566
要請	-10.5664
取材	-10.5667
mb	-10.5667
、1997	-10.5669
小さく	-10.567
ファースト	-10.5671
大学教授	-10.5671
抜け	-10.5672
放映	-10.5673
人形	-10.5675
鉱山	-10.5679
巨	-10.568
上陸	-10.5687
秦	-10.5689
先の	-10.569
フォーク	-10.5691
なくなり	-10.5694
教え	-10.5697
、1994	-10.5697
時計	-10.5698
広島県	-10.5698
▁紀元前	-10.5701
飼育	-10.5704
の関係	-10.5707
位で	-10.5711
各国	-10.5714
つか	-10.5717
懐	-10.5717
ころ	-10.5717
▁享年	-10.5722
賞受賞	-10.5726
渋谷	-10.5728
競争	-10.5728
終了後	-10.5731
若干	-10.5737
中将	-10.5742
1945	-10.5742
解消	-10.5744
フォル	-10.5748
wi	-10.575
河内	-10.5751
とある	-10.5753
ソビエト連邦	-10.5753
時代から	-10.5755
継ぎ	-10.5755
奉行	-10.5755
校舎	-10.5756
伴	-10.5756
に至った	-10.5757
攻略	-10.5758
農民	-10.5759
、1995	-10.576
の楽曲	-10.576
は以下の通り	-10.5763
クロー	-10.5764
リニューアル	-10.5764
ッター	-10.5765
そこから	-10.5766
塗装	-10.5769
もあって	-10.5772
オーディション	-10.5772
shi	-10.5773
に対しては	-10.5774
少ない	-10.5777
感情	-10.5779
アプリケーション	-10.5782
若手	-10.5782
然	-10.5783
専門学校	-10.5783
ものだった	-10.5784
オンライン	-10.5784
に戻り	-10.5784
ライバル	-10.5785
ダブル	-10.5789
伝統的な	-10.579
溝	-10.5794
作者	-10.5794
吾	-10.5795
請求	-10.5795
ました	-10.5799
直線	-10.5801
似	-10.5801
に戻る	-10.5801
沖縄県	-10.5805
補給	-10.5806
連れ	-10.5806
エンド	-10.5808
新田	-10.5809
夜間	-10.5811
1950	-10.5812
史料	-10.5814
one	-10.5817
晋	-10.582
の前に	-10.5821
降伏	-10.5822
rs	-10.5823
部族	-10.5823
ku	-10.5824
達成	-10.5824
坊	-10.5827
ヌー	-10.5829
以前に	-10.5831
に戻った	-10.5831
るために	-10.5831
就	-10.5833
ティス	-10.5833
一軍	-10.5834
爆弾	-10.5834
われた	-10.5834
素材	-10.5835
キャンプ	-10.5838
射撃	-10.5843
、1996	-10.5845
ミッション	-10.5845
を務めていた	-10.5846
mon	-10.5847
刻	-10.5848
理事長	-10.5851
司馬	-10.5851
年ぶりに	-10.5853
▁1973	-10.5853
繁殖	-10.5857
菜	-10.5858
官僚	-10.5862
作品を	-10.5864
の声	-10.5866
下げ	-10.5866
-10	-10.587
周波数	-10.5871
ボード	-10.5871
ドライブ	-10.5873
日記	-10.5873
すら	-10.5874
シンガポール	-10.5875
都道府県	-10.5877
半分	-10.5878
にわたり	-10.5878
に貢献した	-10.5878
ラント	-10.5878
これまで	-10.5878
脱出	-10.588
癌	-10.5885
ベラ	-10.5888
専用の	-10.589
その後の	-10.5891
の内容	-10.5891
年度の	-10.5892
モーター	-10.5896
ty	-10.5897
社会的	-10.5897
騎兵	-10.5897
受験	-10.5898
違う	-10.5899
の生産	-10.5899
風の	-10.59
審	-10.59
▁19	-10.5901
反乱	-10.5902
するよう	-10.5903
スー	-10.5904
押し	-10.5905
ナス	-10.5908
誤	-10.5911
に沿って	-10.5912
相談	-10.5912
近くの	-10.5912
が多かった	-10.5915
アド	-10.5915
暫定	-10.5917
日付で	-10.5919
のみが	-10.5919
所在地	-10.5921
詰め	-10.5922
の原因	-10.5923
追放	-10.5924
乾	-10.5926
を示した	-10.5926
贈	-10.5929
承	-10.5931
、1992	-10.5934
早稲田大学	-10.5934
あなた	-10.5937
▁ha	-10.5937
の変化	-10.5938
前期	-10.5939
ミリ	-10.5941
標	-10.5942
傘下	-10.5942
の時代	-10.5942
が出	-10.5944
朝の	-10.5947
白い	-10.5948
航路	-10.5948
を与えた	-10.5952
以外に	-10.5952
例外	-10.5952
はすべて	-10.5954
徒	-10.5955
発電所	-10.5955
したものである	-10.5956
が登場する	-10.5962
即位	-10.5963
の家	-10.5964
▁1978	-10.5964
止め	-10.5965
デザイナー	-10.5968
シェル	-10.5968
されず	-10.5969
させること	-10.597
の数	-10.5975
ドーム	-10.5976
繁	-10.5982
顕	-10.5986
市町村	-10.5988
▁日本の	-10.5988
▁1975	-10.5989
要塞	-10.5996
コメント	-10.5997
pr	-10.6
錦	-10.6005
っていない	-10.6006
創作	-10.6007
大賞	-10.6009
振興	-10.6011
リウス	-10.6014
イス	-10.6014
研	-10.6016
年代には	-10.6018
息	-10.6018
初回	-10.6021
複合	-10.6024
紋	-10.6026
乗客	-10.6026
教皇	-10.6028
目に	-10.6029
殺人	-10.6033
の発展	-10.6034
ナチス	-10.6035
ポル	-10.6036
方向に	-10.6036
の高さ	-10.6037
太田	-10.6037
途中で	-10.6043
ディレクター	-10.6045
▁主な	-10.6046
フリードリヒ	-10.6048
インターチェンジ	-10.6049
▁それは	-10.6049
▁st	-10.6049
[	-10.6051
はなかった	-10.6053
事が	-10.6053
船舶	-10.6054
包	-10.6054
群馬県	-10.6054
洗	-10.6054
鷹	-10.6055
ティン	-10.6055
chi	-10.6057
シリア	-10.6059
限	-10.606
孔	-10.6062
以外	-10.6062
マルチ	-10.6063
を迎えた	-10.6065
、1993	-10.6066
原理	-10.6067
ペア	-10.6068
大会で	-10.6069
削減	-10.607
されてきた	-10.6073
地図	-10.6075
早く	-10.6075
ag	-10.6075
▁彼らは	-10.6076
ごと	-10.6076
▁つまり	-10.6078
金沢	-10.608
に存在する	-10.6083
炭	-10.6084
インタビュー	-10.6086
呂	-10.6088
バリ	-10.6089
乗車	-10.6089
欧米	-10.6091
we	-10.6092
の特徴	-10.6093
日に発売された	-10.6094
ツール	-10.6097
体育	-10.6103
公式戦	-10.6104
限り	-10.6106
特許	-10.6107
▁中国	-10.6108
、1989	-10.6109
遺体	-10.6111
選挙区	-10.6112
ことによって	-10.6113
並	-10.6118
ハード	-10.6118
根拠	-10.6118
プレス	-10.6119
テレビ番組	-10.612
art	-10.6122
彼らは	-10.6123
リアン	-10.6124
ボート	-10.6124
出版社	-10.613
木村	-10.6133
電波	-10.6133
、1991	-10.6136
オープニング	-10.6136
害	-10.6137
妃	-10.6137
村の	-10.6141
縮小	-10.6143
連覇	-10.6146
高松	-10.6149
したものの	-10.6151
されるようになった	-10.6152
拳	-10.6153
買	-10.6154
に取り	-10.6155
1984	-10.6157
確率	-10.6158
ものとして	-10.6159
入社	-10.6161
強力な	-10.6162
漁	-10.6164
恩	-10.6168
数々の	-10.6169
を担当	-10.6171
等で	-10.6172
登場する	-10.6172
会社の	-10.6173
譲渡	-10.6174
で知られる	-10.6175
の音楽	-10.6176
回戦で	-10.6178
上演	-10.6182
出走	-10.6184
sd	-10.6185
rt	-10.6192
線と	-10.6194
初出場	-10.6197
ストーン	-10.6197
定着	-10.6197
オフィス	-10.6202
わけではない	-10.6204
防御	-10.6208
もなく	-10.6212
回路	-10.6213
宮城県	-10.6214
昔	-10.6214
自殺	-10.6216
プール	-10.6218
捕	-10.622
ドラフト	-10.6225
▁アメリカ	-10.623
チームが	-10.6235
▁1971	-10.6236
長年	-10.6238
委託	-10.6238
微	-10.6238
は当初	-10.624
▁1976	-10.6241
ていて	-10.6242
包囲	-10.6244
飾	-10.6246
評論家	-10.6248
子会社	-10.6253
酵素	-10.6259
クイズ	-10.6259
貢献	-10.6265
突然	-10.6268
タイヤ	-10.6268
戦力	-10.6268
後方	-10.6268
ers	-10.6269
ビール	-10.6269
ノース	-10.6272
メモリ	-10.6272
の大きさ	-10.6277
二重	-10.6278
恒	-10.6278
国籍	-10.6282
しようと	-10.6282
自身も	-10.6283
の二	-10.6284
ダービー	-10.6285
がん	-10.6285
ピーター	-10.6287
スカイ	-10.6291
やす	-10.6291
急速に	-10.6292
分に	-10.6295
短縮	-10.6296
を与え	-10.6297
ガード	-10.6297
発表した	-10.6299
ゴルフ	-10.6299
することとなった	-10.63
オーケストラ	-10.6306
なっている	-10.6308
ッティ	-10.631
公式サイト	-10.6311
生成	-10.6313
ビス	-10.6314
を行うこと	-10.6315
我	-10.6315
降り	-10.6318
軍を	-10.632
駆動	-10.632
を含め	-10.6321
ミュージカル	-10.6322
フライ	-10.6325
弟の	-10.6325
の一環として	-10.6325
大橋	-10.6326
黄色	-10.6329
部分は	-10.633
ハイム	-10.6332
グレイ	-10.6333
の小	-10.6335
ターン	-10.6335
申	-10.6337
-0	-10.6339
丹	-10.6339
rd	-10.6342
英雄	-10.6343
市内の	-10.6344
ヒトラー	-10.635
が発表された	-10.6353
こく	-10.6353
攻め	-10.6356
教室	-10.6356
航	-10.6356
ハワイ	-10.6357
という意味	-10.6357
を出す	-10.6359
即	-10.6359
ドイツ軍	-10.6359
社名	-10.6362
エドワード	-10.6363
バスケットボール	-10.6365
は日本	-10.6365
sl	-10.6369
ut	-10.6369
tri	-10.6372
暴力	-10.6372
類似	-10.6373
マラ	-10.6374
読者	-10.6374
宮殿	-10.6374
怪我	-10.6377
配備	-10.6378
避難	-10.6378
この時	-10.6379
眠	-10.6379
すぐ	-10.6379
1,000	-10.638
メガ	-10.6381
確立	-10.6381
化する	-10.6385
などと	-10.6385
がいた	-10.6387
中期	-10.639
に分類される	-10.6397
本来の	-10.6409
赤い	-10.641
エフ	-10.6412
主導	-10.6412
ーク	-10.6415
チェン	-10.6424
奏者	-10.6425
信頼	-10.6425
連合軍	-10.6427
nba	-10.6429
需要	-10.6429
活動を	-10.6433
ヒーロー	-10.6438
ft	-10.6438
昼	-10.6438
率は	-10.6441
タワー	-10.6441
▁このように	-10.6443
やはり	-10.6444
上記の	-10.6444
モス	-10.6447
募集	-10.6451
にあたり	-10.6453
▁当初	-10.6453
田村	-10.6453
ロイヤル	-10.6453
ムス	-10.6454
▁1974	-10.6455
吹	-10.6457
天皇の	-10.6457
宅	-10.6458
以外にも	-10.6468
にとっては	-10.6468
支店	-10.6471
わか	-10.6471
言う	-10.6473
ep	-10.6476
の販売	-10.6477
逆転	-10.6477
船団	-10.6478
左衛門	-10.6479
行列	-10.6479
それまでの	-10.648
を占める	-10.648
tu	-10.6482
美しい	-10.6483
ユニ	-10.6484
がそれぞれ	-10.6484
鹿児島県	-10.6485
歳の時に	-10.6486
ソル	-10.6488
最低	-10.6493
年までに	-10.6493
ものがある	-10.6493
上り	-10.6497
ns	-10.6498
処	-10.65
徹	-10.6502
正面	-10.6502
退任	-10.6503
が始まり	-10.6503
警	-10.6506
しさ	-10.6507
ひと	-10.651
迫	-10.6513
者である	-10.6516
、1988	-10.6517
ゼル	-10.6518
法の	-10.6519
応援	-10.6519
わず	-10.652
▁父は	-10.652
寧	-10.6522
自身は	-10.6522
ドラム	-10.6523
インター	-10.6523
東宝	-10.6526
"(	-10.653
恋愛	-10.653
、1987	-10.6531
を利用する	-10.6531
の影響で	-10.6533
依頼	-10.6537
尻	-10.6538
勤	-10.6539
がい	-10.6541
若者	-10.6541
は大	-10.6541
ant	-10.6545
用いられ	-10.6545
推薦	-10.6546
ナポレオン	-10.6547
大規模	-10.6548
数値	-10.6549
解体	-10.655
製造された	-10.6553
配給	-10.6554
収集	-10.656
ゲート	-10.6561
ツェ	-10.6562
宮崎	-10.6562
指摘	-10.6562
段階で	-10.6564
ようやく	-10.6564
マガジン	-10.6565
1.5	-10.6566
自体は	-10.6568
が多数	-10.6569
装飾	-10.6576
庁舎	-10.6577
上がる	-10.6578
だん	-10.6578
量産	-10.6586
ーノ	-10.6589
α	-10.6592
かみ	-10.6595
容量	-10.6596
容	-10.6597
助手	-10.6599
▁1969	-10.66
ギリシア	-10.66
周年	-10.6602
レンズ	-10.6605
司会	-10.6605
に指定されている	-10.6606
郭	-10.6606
に伴って	-10.6608
▁すなわち	-10.6609
非難	-10.6609
子ども	-10.6609
インドネシア	-10.661
東側	-10.661
▁1977	-10.6613
国連	-10.6615
回収	-10.6616
行事	-10.6622
ジェイ	-10.6624
をとる	-10.6624
ペット	-10.6625
してしまった	-10.6626
酸素	-10.6626
dd	-10.6626
保守	-10.6627
を打ち	-10.6631
バード	-10.6638
夫婦	-10.6638
サンタ	-10.6639
od	-10.6642
のみである	-10.6643
放出	-10.6643
褐色	-10.6644
で行われる	-10.6647
西武	-10.6649
者として	-10.6649
ミング	-10.6654
を利用した	-10.6656
庄	-10.6663
意図	-10.6664
–	-10.6664
ニュージーランド	-10.6664
郊外	-10.6667
?」	-10.6667
亭	-10.6667
乾燥	-10.6669
を担当する	-10.667
勤め	-10.6673
独特の	-10.6674
キル	-10.6675
磨	-10.6679
疑問	-10.668
艦長	-10.6681
業績	-10.6681
しょ	-10.6682
しゅ	-10.6682
停留所	-10.6684
音源	-10.6686
▁これを	-10.6687
秘	-10.6687
フェン	-10.6691
に際して	-10.6693
幹	-10.6695
乃	-10.6699
威	-10.6699
武田	-10.6699
黒人	-10.6699
化し	-10.6699
込	-10.67
公表	-10.67
が発生し	-10.6701
▁1968	-10.6701
以外は	-10.6701
誰	-10.6703
菓子	-10.6706
著名な	-10.6706
は無い	-10.6712
移植	-10.6714
ノール	-10.6714
以前は	-10.6714
むしろ	-10.6715
日本国内	-10.6715
異常	-10.6717
▁前作	-10.6719
リエ	-10.6721
タイプの	-10.6723
up	-10.6725
タンパク質	-10.6727
亡くなった	-10.6728
に用いられる	-10.673
衝撃	-10.6733
変わり	-10.6734
損害	-10.6736
小惑星	-10.6737
どこ	-10.6738
01	-10.6739
に生まれた	-10.674
診断	-10.6741
尺	-10.6742
豆	-10.6745
戦場	-10.6749
プロセス	-10.6753
認可	-10.6756
ウィル	-10.6761
示す	-10.6762
▁=	-10.6762
za	-10.6766
バンク	-10.6768
この地域	-10.6768
対決	-10.6769
ネオ	-10.677
キュー	-10.6771
83	-10.6771
関心	-10.6774
在籍	-10.6776
態度	-10.6779
ot	-10.678
同期	-10.678
▁その結果	-10.6781
確保	-10.6782
楊	-10.6785
、1985	-10.6786
宋	-10.6786
現代の	-10.6789
チェコ	-10.6789
ラテン語	-10.6789
使われた	-10.6789
勲章	-10.6791
ようと	-10.6792
▁1944	-10.6796
メタル	-10.6797
といえる	-10.6797
ことである	-10.6799
民国	-10.68
の弟	-10.6801
動員	-10.6802
騎手	-10.6806
哲	-10.6807
結成された	-10.6812
mg	-10.6813
エンディング	-10.6815
本土	-10.6816
束	-10.6816
駅の	-10.6818
げん	-10.6822
影響力	-10.6823
家に	-10.6823
好きな	-10.6824
1972	-10.6824
準優勝	-10.6826
工作	-10.6827
前年	-10.6828
まった	-10.683
広域	-10.6833
逃れ	-10.6834
家臣	-10.6835
東方	-10.6836
徳川	-10.6836
、1986	-10.6837
町にある	-10.6837
フェア	-10.6838
運賃	-10.684
高原	-10.6841
者たち	-10.6841
衰退	-10.6841
葬	-10.6842
近鉄	-10.6843
構築	-10.6845
動力	-10.6845
族の	-10.6851
連携	-10.6852
りょう	-10.6854
に住む	-10.6856
fi	-10.686
方が	-10.6861
に選出された	-10.6861
モア	-10.6862
発見された	-10.6863
期に	-10.6867
突	-10.6867
平方マイル	-10.6868
柏	-10.6872
回数	-10.6874
1983	-10.6876
岡田	-10.6876
パーソナリティ	-10.688
番線	-10.6882
私は	-10.6884
物資	-10.6884
療法	-10.6885
領主	-10.6886
朗	-10.6887
cy	-10.6887
だという	-10.6888
他に	-10.689
の神	-10.689
学名	-10.6891
1982	-10.6892
▁多くの	-10.6892
を求め	-10.6893
とは異なる	-10.6898
チー	-10.6902
者に	-10.6905
一本	-10.6906
コム	-10.6906
登場した	-10.6908
予	-10.6913
長男	-10.6917
学問	-10.6919
と呼ばれていた	-10.6921
賞金	-10.6921
反発	-10.6926
語り	-10.6929
みな	-10.693
高速道路	-10.6931
おそらく	-10.6934
濃度	-10.6941
趣味	-10.6943
を加えた	-10.6945
将棋	-10.6947
作目	-10.6948
スリー	-10.6948
編纂	-10.6949
号は	-10.6949
決勝で	-10.695
種目	-10.6951
ウォ	-10.6951
インターナショナル	-10.6952
反映	-10.6953
ng	-10.6958
協議会	-10.696
岡山県	-10.696
羊	-10.6961
年シーズン	-10.6964
の森	-10.6965
71	-10.6965
ができる	-10.6965
ヴェー	-10.6966
けんどう	-10.6966
互いに	-10.6967
の下に	-10.6968
を通る	-10.697
面で	-10.6971
積み	-10.6971
位となった	-10.6976
輔	-10.6976
マイクロ	-10.6977
長野	-10.6977
82	-10.6978
に移り	-10.6985
始	-10.6985
開拓	-10.6985
促進	-10.6985
将来	-10.6987
会館	-10.699
ll	-10.699
の末	-10.6991
発電	-10.6993
研修	-10.6993
だから	-10.6994
機関車	-10.6994
トラブル	-10.6995
vs	-10.6995
▁sa	-10.6996
トーマス	-10.6999
マラソン	-10.6999
爆	-10.7001
武士	-10.7002
修了	-10.7004
bc	-10.7006
岐阜	-10.7009
押	-10.701
食事	-10.7012
侵入	-10.7012
5,000	-10.7013
水道	-10.7015
頻繁に	-10.7015
プラス	-10.7021
飛行機	-10.7021
▁やがて	-10.7023
▁したがって	-10.7024
フレーム	-10.7028
育	-10.7031
を残した	-10.7032
されたもの	-10.7033
を結成	-10.7033
天然	-10.7035
当て	-10.7042
きっかけ	-10.7045
栄養	-10.705
でん	-10.7051
▁北海道	-10.7052
に所属	-10.7053
通貨	-10.7053
吹き	-10.7055
バレー	-10.7055
へ向かう	-10.7058
最終的には	-10.7058
得意	-10.7059
に加入	-10.706
積極的に	-10.706
るように	-10.7061
始まった	-10.7062
何か	-10.7062
に参戦	-10.7062
上部	-10.7063
トレーニング	-10.7064
下に	-10.7064
の利用	-10.7066
ためである	-10.7069
クレジット	-10.707
順に	-10.707
ホル	-10.707
が決定	-10.7072
君主	-10.7073
直径	-10.7074
▁更に	-10.7074
巨大	-10.7075
車線	-10.7076
なもの	-10.7076
1975	-10.7077
弦	-10.7078
戦士	-10.7082
公国	-10.7082
総裁	-10.7084
』("	-10.7085
ベリー	-10.7085
専攻	-10.7086
在位	-10.7088
人たち	-10.7088
戦術	-10.709
被害者	-10.7091
上げた	-10.7096
次々と	-10.7099
活躍した	-10.7104
宮廷	-10.7108
受信	-10.7109
になっており	-10.7111
映	-10.7114
死者	-10.7119
を決めた	-10.712
しょうがっこう	-10.712
結び	-10.7121
イラク	-10.7124
ラジオ番組	-10.7125
郵便	-10.7128
才能	-10.7129
大衆	-10.7129
行く	-10.7131
煙	-10.7131
勲	-10.7132
語で	-10.7132
泊	-10.7132
中断	-10.7133
会話	-10.7134
名義で	-10.7137
ボクシング	-10.714
宝塚	-10.714
岩手県	-10.7142
完全な	-10.7143
の舞台	-10.7148
天体	-10.7149
sta	-10.7149
既存の	-10.715
lan	-10.7151
mlb	-10.7153
タンク	-10.7153
が発売された	-10.7154
ティア	-10.7158
ヨン	-10.716
発達	-10.716
イギリス軍	-10.7161
差し	-10.7161
ster	-10.7162
大西洋	-10.7162
を含めた	-10.7164
下で	-10.7164
ロイド	-10.7164
ヴァイ	-10.7167
プレート	-10.7167
進学	-10.717
走り	-10.7172
変動	-10.7173
ig	-10.7181
かもしれない	-10.7181
側が	-10.7186
鋼	-10.7189
富山	-10.7189
の前	-10.719
循環	-10.7192
敗退	-10.7192
月刊	-10.7195
con	-10.7195
呼称	-10.7199
サンフランシスコ	-10.7199
05	-10.7201
1969	-10.7201
▁o	-10.7202
午前	-10.7203
当日	-10.7204
育て	-10.7204
▁これらは	-10.7204
涼	-10.7206
到着	-10.7206
論争	-10.7209
1979	-10.721
を挙げた	-10.7211
意味で	-10.7214
書いた	-10.7215
土曜	-10.7216
いだ	-10.7217
81	-10.7217
からである	-10.7222
月末	-10.7222
攻	-10.7225
テープ	-10.7225
ゾン	-10.7233
中島	-10.7234
琴	-10.7235
中華民国	-10.7235
松平	-10.7236
年間の	-10.7237
yo	-10.7238
きん	-10.724
年までは	-10.724
テス	-10.7241
者を	-10.7241
助教授	-10.7242
駐車場	-10.7242
任意の	-10.7246
を見た	-10.7247
機が	-10.7249
▁イギリス	-10.7249
製作された	-10.725
に渡り	-10.725
ファミリー	-10.7251
中野	-10.7252
の調査	-10.7252
ger	-10.7252
蓋	-10.7254
モンスター	-10.7255
うた	-10.7257
のだ	-10.7257
囲	-10.7262
が中心	-10.7264
選手として	-10.7265
南海	-10.7266
トランス	-10.7267
テイ	-10.7269
いていた	-10.727
白人	-10.7272
を迎え	-10.7274
本作の	-10.7275
▁1967	-10.7275
開放	-10.7277
『"	-10.7282
上級	-10.7286
を開始し	-10.7288
報告書	-10.7288
限界	-10.7289
、1984	-10.729
グラン	-10.7292
やすく	-10.7292
松山	-10.7296
事件の	-10.7297
保管	-10.7297
ようになっている	-10.7301
続け	-10.7302
コンテンツ	-10.7303
状に	-10.7305
▁con	-10.7306
ショート	-10.7307
映画監督	-10.7308
気象	-10.731
再現	-10.7312
ハム	-10.7313
財団	-10.7316
ポンド	-10.7317
壇	-10.7319
ルド	-10.7323
マイク	-10.7324
が強く	-10.7324
署	-10.7326
アルコール	-10.7327
荷	-10.7328
リク	-10.7335
軍に	-10.7335
禅	-10.7338
文章	-10.7338
〜』	-10.7342
十二	-10.7344
国内の	-10.7345
監	-10.7349
干	-10.735
蛇	-10.735
アレンジ	-10.7351
ノス	-10.7351
▁mo	-10.7351
ロフ	-10.7352
che	-10.7353
創造	-10.7354
―	-10.7354
ガール	-10.7354
uss	-10.7358
法案	-10.7361
ルン	-10.7362
プロモーション	-10.7362
編入	-10.7363
象	-10.7369
ラリー	-10.7372
努力	-10.7373
経由	-10.7374
を提供する	-10.7374
年ぶりの	-10.7376
担	-10.7377
移住	-10.7377
周年記念	-10.7377
えい	-10.7378
日本テレビ	-10.7379
はまだ	-10.738
▁以下の	-10.7385
フィリップ	-10.7387
不安	-10.739
使用され	-10.739
▁昭和	-10.7392
嵐	-10.7394
を受けている	-10.7395
えん	-10.7395
my	-10.7398
を起こす	-10.7399
の指導	-10.74
といい	-10.7402
前田	-10.7403
磯	-10.7403
まい	-10.7403
予測	-10.7404
願い	-10.7406
の都市	-10.7407
ギア	-10.7407
コントロール	-10.7408
プレーオフ	-10.7408
甘	-10.741
風景	-10.7412
アッ	-10.7421
離れた	-10.7422
代表的な	-10.7422
ることとなった	-10.7423
決議	-10.7425
趙	-10.7425
性を	-10.7426
保持	-10.7427
隣接する	-10.7427
だったため	-10.7427
したい	-10.7429
人数	-10.743
婚	-10.743
もない	-10.7431
フィート	-10.7435
リル	-10.7436
夫妻	-10.7437
山梨県	-10.7438
を中心とする	-10.7438
ファイナル	-10.7439
▁1964	-10.7439
秘密	-10.7443
呼	-10.7443
ておらず	-10.7445
car	-10.7448
上がった	-10.7449
県の	-10.745
勝負	-10.7451
するか	-10.7456
キャンペーン	-10.7457
ナショナル	-10.7458
悪魔	-10.7463
外観	-10.7464
求	-10.7465
書かれた	-10.7466
減少	-10.7468
犯人	-10.7469
最後	-10.7469
猿	-10.7471
はそれぞれ	-10.7473
は以下の	-10.7474
ないこと	-10.7474
自主	-10.7476
今後	-10.7476
附属	-10.7478
の三	-10.7479
mar	-10.748
大分	-10.7484
コムーネ	-10.7487
定数	-10.7487
▁三	-10.7489
ルト	-10.7492
イェ	-10.7493
合戦	-10.7493
当主	-10.7494
情報を	-10.7494
古墳	-10.7495
発着	-10.7496
魏	-10.7502
免	-10.7506
起源	-10.7507
警察署	-10.7507
直後	-10.7509
dj	-10.751
署名	-10.7511
複雑な	-10.7512
締結	-10.7516
アレ	-10.7518
1968	-10.7518
合流	-10.7522
ジャクソン	-10.7523
rpg	-10.7524
ッサ	-10.7525
代替	-10.7529
みや	-10.7529
留学	-10.7529
共和党	-10.753
との間で	-10.7533
針	-10.7534
いった	-10.7535
するように	-10.7538
ようとした	-10.7539
を形成する	-10.754
元の	-10.7541
▁1940	-10.7542
発掘	-10.7542
と異なり	-10.7544
創刊	-10.7547
化合物	-10.7547
接近	-10.7548
に属し	-10.7548
ニュ	-10.755
が発生する	-10.755
國	-10.7552
日付	-10.7553
ナウ	-10.7553
しようとした	-10.7554
セルビア	-10.7555
開催された	-10.7557
ウー	-10.756
ケット	-10.756
終点	-10.7561
琉球	-10.7562
が発生した	-10.7562
死んだ	-10.7564
を見る	-10.757
同時期に	-10.7572
長距離	-10.7573
の放送	-10.7575
▁翌年	-10.7577
黒い	-10.7578
land	-10.7578
場合に	-10.7582
指揮者	-10.7582
を採用した	-10.7584
が無い	-10.7584
の活動	-10.7584
狂	-10.7587
衆議院議員	-10.7587
前方	-10.7589
観音	-10.7591
披露	-10.7591
ob	-10.7593
南方	-10.7593
は再び	-10.7593
送信	-10.7595
に入ると	-10.76
駐	-10.7601
鎖	-10.7604
(,	-10.7604
聖書	-10.7607
1981	-10.7607
関与	-10.7609
周期	-10.7609
ブルース	-10.7613
童	-10.7614
在住	-10.7615
物を	-10.7617
ライター	-10.7617
にくい	-10.7618
▁前	-10.7618
を図る	-10.7619
天正	-10.762
乗り入れ	-10.762
山頂	-10.7626
日本に	-10.7626
チベット	-10.7628
クレイ	-10.7629
澄	-10.763
だけの	-10.7632
を達成した	-10.7634
送り	-10.7634
が強い	-10.7636
ヒロイン	-10.7638
正式な	-10.7643
夏の	-10.7643
の最初の	-10.7643
告げ	-10.7646
と言い	-10.7647
宇都宮	-10.7647
闘争	-10.7648
1973	-10.7651
1974	-10.7653
軟	-10.7654
講談社	-10.7655
会の	-10.7659
ってきた	-10.7659
▁この頃	-10.7659
へ移籍	-10.7659
に行く	-10.7659
アカ	-10.7659
を達成	-10.7662
一般的に	-10.7665
制覇	-10.7667
作った	-10.7669
認知	-10.767
視点	-10.767
朝日	-10.7673
晩	-10.7673
オスマン帝国	-10.7674
基本的な	-10.7674
入場	-10.7675
設立された	-10.7676
北陸	-10.7676
実力	-10.7676
たこと	-10.768
1978	-10.7682
卓	-10.7684
芸能	-10.7686
一切	-10.7687
することは	-10.7689
社が	-10.769
スティ	-10.7692
ff	-10.7693
▁mi	-10.7693
科の	-10.7693
日にかけて	-10.7696
プロイセン	-10.7697
クリス	-10.7699
*	-10.77
名誉教授	-10.7704
液体	-10.7708
▁他に	-10.7708
訓	-10.7719
唱	-10.772
第四	-10.7721
南部の	-10.7722
続ける	-10.7722
良く	-10.7722
感覚	-10.7722
ランプ	-10.7722
を続けた	-10.7724
調べ	-10.7727
達は	-10.7728
が存在し	-10.7728
グー	-10.7728
小野	-10.7734
▁通常	-10.7734
配布	-10.7735
に参加する	-10.7736
噂	-10.7738
ラク	-10.7739
モール	-10.7739
としていた	-10.774
コピー	-10.7742
新設	-10.7742
司教	-10.7744
何度も	-10.7745
怒り	-10.7745
全面	-10.7746
せた	-10.7748
混	-10.7748
何らかの	-10.7748
トイレ	-10.775
論理	-10.7754
の成績	-10.7754
の多い	-10.7759
クライ	-10.7759
交易	-10.7761
権限	-10.7761
は通常	-10.7762
品種	-10.7763
94	-10.7764
レート	-10.7765
竣工	-10.7766
sm	-10.7767
付近に	-10.7767
に渡って	-10.7769
淳	-10.7769
ネン	-10.777
コンテスト	-10.777
でデビュー	-10.7772
ゾーン	-10.7775
、1982	-10.7776
発生する	-10.7776
王の	-10.7776
、1983	-10.7777
毎	-10.7779
築	-10.7781
aaa	-10.7782
公立	-10.7782
を務めている	-10.7784
エール	-10.7786
接触	-10.7788
修復	-10.7791
を受賞	-10.7793
面積は	-10.7794
快速	-10.7794
dc	-10.7795
サウス	-10.7796
という名称	-10.7797
の概念	-10.7797
述	-10.7798
の全	-10.7798
代の	-10.7799
米軍	-10.7802
▁以下は	-10.7803
ルーム	-10.7803
なかったが	-10.7803
会計	-10.7803
品質	-10.7805
ポップ	-10.7808
特殊な	-10.7812
マール	-10.7814
使う	-10.7815
実践	-10.7815
刺激	-10.7817
通勤	-10.7818
パック	-10.7819
管轄	-10.7823
登場人物	-10.7823
たもの	-10.7823
違反	-10.7825
チア	-10.7827
▁1966	-10.7828
ペイ	-10.7832
の番組	-10.7832
ルーマニア	-10.7832
ゴル	-10.7832
チェーン	-10.7835
横須賀	-10.7836
不正	-10.785
を発売	-10.7852
建立	-10.7852
オプション	-10.7855
▁1965	-10.7858
tko	-10.786
救助	-10.7862
後ろ	-10.7863
見られ	-10.7869
ul	-10.7871
和田	-10.7874
阪	-10.7878
いき	-10.7878
他にも	-10.7879
コマンド	-10.7881
コフ	-10.7881
の首都	-10.7887
古く	-10.7888
託	-10.7888
1971	-10.7889
と言った	-10.789
hp	-10.7894
碑	-10.7896
の導入	-10.7896
から約	-10.7899
著作権	-10.7902
タクシー	-10.7902
を機に	-10.7902
電源	-10.7903
出演した	-10.7905
駅で	-10.7906
いなかった	-10.7907
改装	-10.7908
ねん	-10.791
多摩	-10.7911
機動	-10.7912
寄付	-10.7912
ンド	-10.7913
1976	-10.7913
砲撃	-10.7914
区の	-10.7916
触	-10.7918
最初	-10.7919
ber	-10.7919
北側	-10.7922
売り上げ	-10.7922
盗	-10.7923
が大きい	-10.7925
に大きな	-10.7927
バレーボール	-10.7927
飛行場	-10.7928
列車が	-10.7929
研究会	-10.793
ともいう	-10.7931
漫画家	-10.7934
回衆議院議員総選挙	-10.7935
ルス	-10.7939
経済学	-10.794
描かれた	-10.7941
▁1941	-10.7943
ようである	-10.7944
室内	-10.7946
採用された	-10.7949
サイン	-10.795
ふく	-10.795
が設置された	-10.795
、1950	-10.7953
任命	-10.7955
質問	-10.7956
上流	-10.7958
場所に	-10.796
事項	-10.796
▁たとえば	-10.796
混合	-10.796
入手	-10.7961
を続け	-10.7963
▁南	-10.7964
そのうち	-10.797
騒動	-10.7971
週刊	-10.7973
大韓民国	-10.7974
を扱う	-10.7974
ea	-10.7976
大量の	-10.7976
朝廷	-10.7979
前身	-10.7981
発展した	-10.7983
崇	-10.7984
才	-10.7984
キス	-10.7985
ud	-10.7987
が少ない	-10.7987
ブルガリア	-10.7987
しなければならない	-10.7988
ディス	-10.7992
ウェブサイト	-10.7993
外側	-10.7994
キューバ	-10.7995
つつある	-10.7998
闇	-10.7999
ゼー	-10.7999
時台	-10.8001
青森県	-10.8002
くん	-10.8004
であるという	-10.8009
ことや	-10.8011
処刑	-10.8012
くら	-10.8013
のことを	-10.8013
mer	-10.8016
様子	-10.8017
起点	-10.8018
修行	-10.8019
で放送されていた	-10.8023
ラスト	-10.8025
献	-10.803
出版された	-10.8031
別れ	-10.8031
▁do	-10.8031
従業員	-10.8033
やり	-10.8036
に達した	-10.8037
ちゅう	-10.8037
dna	-10.8039
ではなかった	-10.804
コメディ	-10.804
視聴者	-10.8041
視聴率	-10.8041
ae	-10.8042
硬	-10.8043
悪化	-10.8046
続き	-10.8046
高山	-10.8046
共有	-10.8046
直前に	-10.8047
車種	-10.8047
世紀末	-10.8048
淵	-10.8049
を持たない	-10.8049
疑	-10.8049
那	-10.805
本格的な	-10.805
建国	-10.8051
込まれ	-10.8051
スコット	-10.8051
線を	-10.8052
ニス	-10.8054
下記の	-10.8059
リャ	-10.8059
使用されている	-10.8063
を起こし	-10.8064
入口	-10.8064
キャスター	-10.8065
pi	-10.8065
ていたため	-10.8067
魚雷	-10.8067
代藩主	-10.8068
庭園	-10.8069
優勝した	-10.807
空中	-10.8071
同士	-10.8071
の間の	-10.8072
tor	-10.8072
▁on	-10.8073
無く	-10.8073
可能である	-10.8073
熊本県	-10.8074
あん	-10.8074
屈	-10.8074
忍	-10.8074
まえ	-10.8076
は現在	-10.8078
城主	-10.8078
同意	-10.808
mac	-10.8082
提示	-10.8083
メタ	-10.8086
の再	-10.8087
を挙げる	-10.8088
ak	-10.809
潜	-10.8093
結果として	-10.8094
ステップ	-10.8097
量は	-10.8098
敷設	-10.81
フロ	-10.8102
tro	-10.8108
ダウンロード	-10.8108
を率いて	-10.8108
ぼう	-10.8109
ドゥー	-10.811
えない	-10.811
自宅	-10.8111
ワーク	-10.8111
養子	-10.8112
高田	-10.8115
祝	-10.8116
班	-10.8116
たま	-10.8117
観光客	-10.8119
▁0	-10.8119
ビーチ	-10.812
規模の	-10.8121
放送開始	-10.8121
完了	-10.8123
タス	-10.8124
掛	-10.8125
トヨタ	-10.8126
ることで	-10.8127
流域	-10.8128
年目	-10.813
ill	-10.8131
番組の	-10.8131
バランス	-10.8134
130	-10.8137
出演者	-10.8137
珍しい	-10.8138
▁1942	-10.8138
などでは	-10.8139
抗争	-10.8142
シオ	-10.8145
とり	-10.8145
理想	-10.8146
冒頭	-10.8147
ところで	-10.8148
クロアチア	-10.8148
」・「	-10.8149
容易に	-10.8149
かない	-10.8151
を使い	-10.8154
の基礎	-10.8157
はほぼ	-10.8157
ok	-10.8158
共演	-10.8159
語の	-10.8159
知られ	-10.816
初登場	-10.8161
幅広い	-10.8162
人権	-10.8164
前面	-10.8165
四郎	-10.8172
証言	-10.8172
城の	-10.8174
ティック	-10.8175
ごろ	-10.8175
中隊	-10.8176
水路	-10.8176
シング	-10.8178
▁ca	-10.8179
世紀後半	-10.818
又	-10.8181
ラップ	-10.8181
りゅう	-10.8181
漁業	-10.8182
さま	-10.8182
庵	-10.8183
を果たし	-10.8185
後任	-10.8185
るという	-10.8188
代理	-10.8188
叔父	-10.819
ホン	-10.8191
の整備	-10.8191
昆虫	-10.8192
秋田県	-10.8192
▁当	-10.8194
ローン	-10.8195
の活躍	-10.8195
終結	-10.8195
捨て	-10.8195
過ぎ	-10.8196
に必要な	-10.8197
第一次世界大戦	-10.8203
ときは	-10.8203
ロゴ	-10.8204
鉱	-10.8208
▁1943	-10.8209
警戒	-10.8209
密度	-10.821
版では	-10.8211
創設された	-10.8211
の流れ	-10.8212
大人	-10.8212
に関わる	-10.8213
綿	-10.8214
ようとする	-10.8215
セミ	-10.8216
途	-10.8216
さき	-10.8218
来る	-10.8219
変形	-10.822
堺	-10.822
務め	-10.822
内側	-10.8221
第一次	-10.8222
静岡	-10.8223
中央部	-10.8224
前者	-10.8225
吸収	-10.8226
に見られる	-10.8227
山形	-10.8228
する場合	-10.8228
先生	-10.8229
day	-10.8229
の北	-10.823
泥	-10.8231
存	-10.8233
1%	-10.8233
ズは	-10.8235
タッグ	-10.8236
▁父	-10.8238
の色	-10.8239
売上	-10.8241
下流	-10.8241
前から	-10.8242
の長さ	-10.8244
バウ	-10.8249
ヴェン	-10.8249
左翼	-10.8252
ガリ	-10.8255
nk	-10.8255
点で	-10.8256
トス	-10.8257
残る	-10.8259
ちゃ	-10.8259
の増加	-10.8259
統制	-10.8263
ことが多く	-10.8265
部下	-10.8272
付けられた	-10.8275
方程式	-10.8276
曲が	-10.8276
▁di	-10.8277
ze	-10.8282
に及ぶ	-10.8283
ld	-10.8284
西側	-10.8286
数十	-10.8291
藩の	-10.8291
のみの	-10.8294
必ず	-10.8297
口径	-10.8298
ツィ	-10.8298
見た	-10.8299
恋人	-10.83
市川	-10.8304
五輪	-10.8305
滞在	-10.8305
は他の	-10.8305
村上	-10.8307
3%	-10.8309
hd	-10.831
踊り	-10.831
ミラー	-10.8311
船体	-10.8311
▁pa	-10.8313
の運行	-10.8314
アプリ	-10.8316
競走馬	-10.8316
国外	-10.832
協議	-10.832
山口県	-10.8321
各地で	-10.8326
した際に	-10.8327
電気鉄道	-10.8328
講	-10.8329
利用できる	-10.833
に入って	-10.833
衣装	-10.8331
pro	-10.8332
拓	-10.8332
dy	-10.8333
準決勝	-10.8333
授与	-10.8335
両国	-10.8335
▁1963	-10.8337
▁東京都出身	-10.8338
瑞	-10.8338
釣り	-10.8339
、1972	-10.8339
刊行された	-10.8339
em	-10.8342
絶滅	-10.8342
登場している	-10.8342
この作品	-10.8345
地中海	-10.8345
一緒に	-10.835
パネル	-10.8351
提出	-10.8353
愛称	-10.8353
に達し	-10.8354
を歴任	-10.8355
武蔵	-10.8361
炉	-10.8361
ヨハン	-10.8362
化石	-10.8362
鍵	-10.8363
の代表	-10.8365
の国	-10.8367
本格的に	-10.8368
のちの	-10.8369
選定	-10.8369
はあまり	-10.8369
ジョンソン	-10.837
一体	-10.8372
停車	-10.8372
この地	-10.8375
初演	-10.8376
比例	-10.8377
直後の	-10.8377
答え	-10.8378
曲線	-10.8379
参入	-10.838
新型	-10.838
の言葉	-10.8381
昇進	-10.8381
番目に	-10.8382
を求めた	-10.8382
討ち	-10.8384
彼を	-10.8386
岡崎	-10.8387
アニ	-10.8387
降格	-10.8388
身分	-10.8388
化され	-10.839
皇后	-10.8391
を多く	-10.8391
払い	-10.8397
後部	-10.84
間もなく	-10.8401
長らく	-10.8406
の部分	-10.8406
課長	-10.8407
リトアニア	-10.8408
とはいえ	-10.8411
ハーン	-10.8412
▁1930	-10.8416
想定	-10.8416
救援	-10.8416
参加者	-10.8418
df	-10.8419
all	-10.8421
配慮	-10.8423
蘇	-10.8423
車内	-10.8423
探偵	-10.8424
っと	-10.8424
余り	-10.8424
▁同じ	-10.8427
、1979	-10.8428
隊長	-10.8429
地域で	-10.8429
衛生	-10.8431
を理由に	-10.8432
冬季	-10.8433
にかけての	-10.8439
手を	-10.8441
高校生	-10.8443
くり	-10.8443
を破り	-10.8445
ジャーナリスト	-10.8445
オーナー	-10.8447
まれ	-10.8448
ny	-10.8449
旧制	-10.845
を出し	-10.8451
▁以下	-10.8451
戦国時代	-10.8451
圧縮	-10.8452
が挙げられる	-10.8452
に成功した	-10.8454
以下のような	-10.8454
騎士	-10.8456
1967	-10.8457
大分県	-10.8459
徳島	-10.846
本種	-10.846
に入	-10.846
を感じ	-10.8461
クルー	-10.8461
的で	-10.8462
恐れ	-10.8462
バイオ	-10.8463
することになる	-10.8463
ものに	-10.8463
先頭	-10.8464
側から	-10.8464
super	-10.8466
南側	-10.8466
の主要	-10.847
教会の	-10.8471
cl	-10.8471
mf	-10.8475
_2	-10.8476
水準	-10.8477
所蔵	-10.8477
ユーロ	-10.8479
相続	-10.8482
用いられている	-10.8483
les	-10.8483
の強い	-10.8484
であることから	-10.8484
遊び	-10.8484
洪水	-10.8485
と同様の	-10.8485
日曜	-10.8486
を学び	-10.8486
ノイ	-10.8487
俗	-10.8489
カンパニー	-10.8489
残っている	-10.849
フェスティバル	-10.8491
▁最初の	-10.8497
に次いで	-10.8497
イスラム	-10.8499
隊員	-10.8502
と結婚した	-10.8502
キック	-10.8503
当初の	-10.8504
モリ	-10.8505
1964	-10.8506
に師事	-10.8506
部隊は	-10.8507
出撃	-10.8508
函館	-10.8508
コマ	-10.8509
近郊	-10.8511
人種	-10.8511
勅	-10.8514
知られる	-10.8514
引退した	-10.8514
耐	-10.8514
くなる	-10.8518
続いた	-10.8518
プス	-10.8518
通常は	-10.8519
▁本名は	-10.8519
改札	-10.8521
階段	-10.8522
タール	-10.8522
1977	-10.8524
を得	-10.8524
ヤマ	-10.8524
クリスマス	-10.8525
スパ	-10.8527
台風	-10.8529
僅か	-10.853
我々	-10.853
文芸	-10.8531
ケーブル	-10.8532
特集	-10.8535
県内	-10.8537
東京大学	-10.8538
年代以降	-10.854
技法	-10.8541
たく	-10.8542
た後	-10.8543
効	-10.8543
建設された	-10.8543
コミックス	-10.8544
の子孫	-10.8545
ゴールデン	-10.8547
爆撃	-10.8547
と言って	-10.8548
目的で	-10.8549
分散	-10.8551
枚の	-10.8551
原料	-10.8555
小倉	-10.8555
証券	-10.8556
物理	-10.8556
将校	-10.8557
をして	-10.8558
淡	-10.8562
沿線	-10.8567
松竹	-10.8567
王位	-10.8569
れない	-10.8573
を受賞した	-10.8575
検索	-10.8575
エクス	-10.8576
進歩	-10.8578
の称号	-10.858
選ばれた	-10.858
であって	-10.858
晩年	-10.858
、1981	-10.8581
辰	-10.8581
示唆	-10.8582
この曲	-10.8588
ある程度	-10.8588
】	-10.8589
たちに	-10.8589
ウム	-10.8589
辛	-10.859
▁フランス	-10.859
2.5	-10.8591
エク	-10.8591
シュー	-10.8594
位に	-10.8599
が初めて	-10.8599
いん	-10.8599
を用い	-10.86
二次	-10.8601
、1975	-10.8603
ヨーロッパの	-10.8604
々と	-10.8605
陥落	-10.8606
の攻撃	-10.8607
ミュンヘン	-10.8607
par	-10.8608
せずに	-10.861
シャル	-10.861
回大会	-10.861
残った	-10.861
ray	-10.8611
圧力	-10.8611
で生まれた	-10.8613
第二次	-10.8614
死後	-10.8614
変わった	-10.8616
ハウ	-10.8618
名古屋市	-10.8618
といわれている	-10.8618
後退	-10.8619
例として	-10.8622
北西部	-10.8622
介入	-10.8623
の母	-10.8625
魅力	-10.8626
は同じ	-10.8626
得られる	-10.8626
濃	-10.8628
と契約	-10.8629
差別	-10.8636
一時期	-10.8636
の設置	-10.8637
成人	-10.864
着陸	-10.8642
悟	-10.8643
のデザイン	-10.8643
有機	-10.8644
の歌	-10.8645
終了した	-10.8645
先端	-10.8646
野村	-10.8648
wbc	-10.8649
その後は	-10.8652
虚	-10.8653
歴史的	-10.8654
スコア	-10.8654
故郷	-10.8654
胡	-10.8656
コンクール	-10.8658
ならない	-10.8659
フリ	-10.8662
年連続	-10.8663
2,000	-10.8663
明治時代	-10.8664
相手の	-10.8668
筒	-10.8669
▁world	-10.8669
のもとで	-10.8669
を学ぶ	-10.8669
文化財	-10.867
ヴィルヘルム	-10.8672
享	-10.8673
を記録し	-10.8675
であることを	-10.8677
続編	-10.868
と結婚	-10.868
の地	-10.8681
客車	-10.8683
を示し	-10.8684
雰囲気	-10.8685
かす	-10.8685
結晶	-10.8685
レッ	-10.8685
初めての	-10.8685
の自由	-10.8687
拝	-10.869
ったり	-10.869
フェリー	-10.8695
故	-10.8698
嫌	-10.8699
脚本家	-10.8699
▁pro	-10.8699
独占	-10.8701
1940	-10.8703
親王	-10.8708
ワイド	-10.8708
早い	-10.871
実在	-10.871
▁結局	-10.8712
恒星	-10.8713
▁同時に	-10.8713
退職	-10.8716
殆ど	-10.8717
著者	-10.8717
栃木県	-10.8718
建築家	-10.8719
全線	-10.8719
届	-10.872
の変更	-10.8723
ないため	-10.8724
借	-10.8728
と言われ	-10.8729
取る	-10.873
味方	-10.8731
内には	-10.8732
旭	-10.8734
幻	-10.8734
と言える	-10.8735
ミュ	-10.8736
中退	-10.8738
個別	-10.8741
つけた	-10.8741
複	-10.8745
バッ	-10.8745
平面	-10.8746
近年	-10.8746
団地	-10.8747
フィル	-10.8752
橋本	-10.8752
役者	-10.8753
くらい	-10.8754
キロメートル	-10.8758
山崎	-10.8759
かつては	-10.8759
緑色	-10.8759
に対応する	-10.8759
戦死	-10.8761
ホールディングス	-10.8761
まもなく	-10.8762
低迷	-10.8763
▁このほか	-10.8763
ばら	-10.8764
イースト	-10.8764
辻	-10.8764
▁japan	-10.8766
訴	-10.8766
ヒュー	-10.8767
ジオ	-10.8767
-15	-10.8772
ついた	-10.8773
と呼び	-10.8776
▁1962	-10.8777
演説	-10.8778
の場	-10.8779
、1978	-10.878
がく	-10.8783
単語	-10.8784
斗	-10.8785
▁彼女は	-10.8785
▁以降	-10.8785
レーシング	-10.8786
てしまい	-10.8787
1890	-10.8787
巡洋艦	-10.8788
重複	-10.8789
はこれを	-10.8792
複雑	-10.8795
の指揮	-10.8795
ないように	-10.8797
cu	-10.8798
シアター	-10.8802
をもとに	-10.8803
先輩	-10.8804
緩和	-10.8806
後には	-10.8806
に比べ	-10.8807
生放送	-10.8809
芽	-10.8809
自体	-10.8811
進む	-10.8812
霧	-10.8813
大会では	-10.8813
box	-10.8813
▁no	-10.8816
になること	-10.8818
110	-10.882
征	-10.882
の地名	-10.8821
当然	-10.8822
功績	-10.8822
駆け	-10.8823
を迎える	-10.8823
校長	-10.8825
優秀	-10.8826
に再	-10.8826
不満	-10.8827
の情報	-10.8828
持つ	-10.8828
管区	-10.883
まったく	-10.883
出演している	-10.883
金曜	-10.883
詳細は	-10.8831
を記録	-10.8831
▁この他	-10.8832
のアルバム	-10.8833
打ち上げ	-10.8834
▁le	-10.8835
号の	-10.8836
頂	-10.8836
月にかけて	-10.8836
滅亡	-10.8837
名で	-10.8838
ist	-10.884
▁まさ	-10.884
手に	-10.8841
にわたる	-10.8842
中国語	-10.8842
シュタイン	-10.8843
原則として	-10.8843
技術者	-10.8844
の状態	-10.8844
籠	-10.8848
改めて	-10.8848
物理学	-10.885
郡は	-10.885
割り	-10.8852
するのは	-10.8853
聞	-10.8854
シーズンの	-10.8856
克	-10.8857
によるもの	-10.8857
ハラ	-10.8858
に所在する	-10.8859
男爵	-10.886
在学中	-10.886
nt	-10.8861
変化する	-10.8861
別名	-10.8861
、1976	-10.8863
つける	-10.8864
日常	-10.8865
登山	-10.8867
行われていた	-10.8867
ウェブ	-10.8867
min	-10.8872
手掛け	-10.8872
出た	-10.8872
タッチ	-10.8874
述べている	-10.8874
翌日	-10.8874
か所	-10.8877
▁番組	-10.8877
夕方	-10.8878
線は	-10.8879
廃車	-10.888
止	-10.8882
合わせて	-10.8885
女性の	-10.8886
エド	-10.8887
▁1961	-10.8893
描かれている	-10.8895
振動	-10.8895
込め	-10.8896
大野	-10.8897
ンス	-10.8901
さず	-10.8901
ice	-10.8901
墓地	-10.8902
mt	-10.8902
アブ	-10.8905
に達する	-10.8905
マネージャー	-10.8905
の前身	-10.8906
の外	-10.8906
▁本作は	-10.8909
明らか	-10.891
番台	-10.8911
pu	-10.8911
アール	-10.8912
目を	-10.8912
グラフ	-10.8913
消滅した	-10.8913
に代わって	-10.8913
900	-10.8915
に向かった	-10.8915
元々	-10.8915
の両方	-10.8918
生息	-10.892
検出	-10.8921
車は	-10.8921
細菌	-10.8922
チョウ	-10.8923
エリザベス	-10.8925
退役	-10.8926
尿	-10.8926
▁正	-10.8927
93	-10.8927
が設けられ	-10.8928
したことで	-10.8929
マックス	-10.8932
グラム	-10.8932
下部	-10.8934
val	-10.8934
ことが出来る	-10.8936
儀式	-10.8936
各地	-10.8937
三河	-10.8938
の動き	-10.894
ほん	-10.8946
幕末	-10.8947
百貨店	-10.8948
日中	-10.895
ぶん	-10.8952
テレビ朝日	-10.8953
に続く	-10.8953
顧客	-10.8954
地の	-10.8954
ent	-10.8954
量の	-10.8954
繊維	-10.8954
遺産	-10.8955
曲の	-10.8956
都市圏	-10.8956
ギン	-10.8957
航行	-10.8958
息子の	-10.896
ヘリコプター	-10.896
肺	-10.896
港湾	-10.8961
チリ	-10.8963
カフェ	-10.8964
ユナイテッド	-10.8966
序	-10.8967
駅は	-10.8968
にする	-10.8969
2%	-10.8972
町内	-10.8974
縮	-10.8977
ゴム	-10.8977
牽引	-10.8977
、1973	-10.8977
アラン	-10.8978
設	-10.8978
めて	-10.898
住宅地	-10.8981
サークル	-10.8981
シェア	-10.8984
伏	-10.8986
のキャラクター	-10.8987
92	-10.8988
使用されていた	-10.8989
らなかった	-10.8989
薬物	-10.899
阪急	-10.8993
立地	-10.8993
の次男	-10.8996
主宰	-10.9
ana	-10.9001
日々	-10.9002
数の	-10.9002
りん	-10.9004
民衆	-10.9004
当地	-10.9006
歌唱	-10.9006
王国の	-10.9006
しようとする	-10.9006
馬場	-10.9007
現れ	-10.9007
▁高	-10.9007
削除	-10.9013
と改名	-10.9018
梨	-10.9019
を設立し	-10.9019
終わり	-10.902
がほとんど	-10.902
膝	-10.9022
企業の	-10.9023
周り	-10.9025
▁一	-10.9028
ジョーンズ	-10.9029
アウ	-10.9029
歳以上	-10.9029
に位置している	-10.903
ron	-10.9031
if	-10.9031
1903	-10.9032
リオン	-10.9032
創建	-10.9032
条例	-10.9033
主任	-10.9035
1500	-10.9035
上田	-10.9035
試合に出場し	-10.9035
出場した	-10.9035
する必要がある	-10.9037
ウォーター	-10.9037
特別な	-10.9038
引用	-10.9038
ディオ	-10.9038
れん	-10.9038
につき	-10.9038
銘	-10.9039
すけ	-10.9039
同士の	-10.9039
跡地	-10.9042
ヒー	-10.9043
王立	-10.9044
吉野	-10.9044
コロンビア	-10.9045
と一緒に	-10.9045
代表として	-10.9046
gs	-10.9047
を主	-10.9048
映画化	-10.9048
変数	-10.9048
石炭	-10.905
責任者	-10.9053
珠	-10.9053
制作された	-10.9054
応募	-10.9054
出現	-10.9054
嗣	-10.9056
各地の	-10.9057
終戦	-10.906
コウ	-10.9061
わけ	-10.9062
▁このうち	-10.9063
行われている	-10.9064
主役	-10.9065
の運営	-10.9065
北部の	-10.9065
垣	-10.9068
ピーク	-10.9068
稿	-10.9068
決め	-10.9069
シャルル	-10.907
匹	-10.9071
専	-10.9072
キア	-10.9074
▁fifa	-10.9074
ヴァイオリン	-10.9075
シネマ	-10.9076
十分な	-10.9077
行っている	-10.9078
実は	-10.9079
佳	-10.908
シップ	-10.908
子供たち	-10.9083
簡易	-10.9084
勉強	-10.9085
扱う	-10.9087
征服	-10.9087
人事	-10.9087
end	-10.9089
ju	-10.9092
クール	-10.9094
エロ	-10.9095
芸人	-10.9097
は全	-10.9097
テーブル	-10.9097
哨戒	-10.9098
に移転	-10.91
江戸時代	-10.9102
海域	-10.9103
権を	-10.9107
齢	-10.9111
一時的に	-10.9111
に勤務	-10.9112
退団	-10.9115
内戦	-10.9116
が少なく	-10.9117
全般	-10.9118
に従い	-10.9119
ショウ	-10.912
を重ね	-10.9121
参考	-10.9122
合格	-10.9124
手続き	-10.9126
は全く	-10.9127
競	-10.9127
考え方	-10.9128
コーヒー	-10.9128
切り替え	-10.913
配列	-10.913
潤	-10.9131
全員が	-10.9132
る事	-10.9132
任期	-10.9132
磁	-10.9132
しかない	-10.9133
バイエルン	-10.9133
は大きく	-10.9134
ことはない	-10.9135
人材	-10.9135
▁専門は	-10.9138
ーラ	-10.9139
もん	-10.9141
の選手	-10.9141
tion	-10.9142
救	-10.9143
ニャ	-10.9143
を使用している	-10.9145
▁本名	-10.9145
メリ	-10.9149
刑務所	-10.9149
ガラ	-10.915
イスラーム	-10.915
近衛	-10.9151
為に	-10.9151
活性化	-10.9152
フト	-10.9152
駅まで	-10.9154
細川	-10.9156
の生活	-10.9157
に存在した	-10.9157
慶長	-10.9158
した際	-10.9159
を作った	-10.916
フジ	-10.9162
亮	-10.9164
が必要である	-10.9165
基本的に	-10.9165
小屋	-10.9169
養成	-10.917
おき	-10.9171
フィラデルフィア	-10.9172
レーン	-10.9173
ten	-10.9173
1965	-10.9174
する形で	-10.9175
を進め	-10.9175
1966	-10.9177
playstation	-10.9177
径	-10.9177
を経由して	-10.9178
烏	-10.9178
共同体	-10.9179
『』	-10.918
有名である	-10.918
既	-10.9181
撃	-10.9182
イエス	-10.9182
てくる	-10.9185
マップ	-10.9187
スポット	-10.9189
建築物	-10.9189
gm	-10.9192
1930	-10.9193
を大きく	-10.9195
公開された	-10.9199
残留	-10.92
映画の	-10.9201
ノフ	-10.9201
住居	-10.9204
心理	-10.9207
1/	-10.9208
皮膚	-10.9208
ならびに	-10.9208
事で	-10.9211
財務	-10.9213
140	-10.9213
が起こる	-10.9216
作画	-10.9217
▁いずれも	-10.9217
らせ	-10.9218
菅	-10.9219
十分	-10.922
を含めて	-10.9221
を獲得し	-10.9222
ブリー	-10.9222
付近で	-10.9225
非常	-10.9228
延伸	-10.9229
の技術	-10.9229
金額	-10.9229
1918	-10.923
商店街	-10.9231
殻	-10.9232
順次	-10.9234
滋賀県	-10.9235
ストップ	-10.9237
戦の	-10.9238
08	-10.9238
易	-10.924
現存する	-10.9241
岬	-10.9242
満州	-10.9242
="2"|-||	-10.9242
併用	-10.9242
1944	-10.9245
灰	-10.9246
棚	-10.9247
北区	-10.9248
実用	-10.9248
gu	-10.9252
堤	-10.9255
の監督	-10.9255
奈良県	-10.9255
、1974	-10.9256
欲	-10.9258
ペー	-10.9258
セブン	-10.926
づけ	-10.926
控え	-10.926
hy	-10.926
と考え	-10.9261
通路	-10.9262
パーツ	-10.9262
刃	-10.9264
もこの	-10.9265
ムシ	-10.9267
チップ	-10.927
と述べ	-10.9272
tic	-10.9275
を学んだ	-10.9276
スカウト	-10.9279
、1977	-10.9279
毎回	-10.9279
注目	-10.9281
マンション	-10.9281
三島	-10.9283
フランス軍	-10.9283
で初	-10.9283
大坂	-10.9283
季節	-10.9283
の際には	-10.9286
残りの	-10.9287
正しい	-10.9288
寺の	-10.9291
戦う	-10.9291
隻の	-10.9293
ボーナス	-10.9295
に敗れ	-10.9295
損	-10.9297
放棄	-10.9299
を知る	-10.93
年以降は	-10.9301
をベースに	-10.9302
されるが	-10.9303
不能	-10.9304
運河	-10.9307
とは別に	-10.9307
衆議院	-10.9308
を繰り返し	-10.9309
▁1959	-10.9309
候補者	-10.9311
水平	-10.9312
▁ro	-10.9312
説得	-10.9313
キリスト	-10.9313
実施された	-10.9317
山形県	-10.9317
恐怖	-10.9317
必要な	-10.9319
▁1958	-10.932
もっと	-10.932
啓	-10.9324
かれた	-10.9324
▁現在では	-10.9325
ファイ	-10.9326
嶺	-10.9327
セーブ	-10.9328
プー	-10.9331
平安時代	-10.9332
併	-10.9332
を訪れ	-10.9333
ンは	-10.9333
が用いられる	-10.9334
操	-10.9334
スイッチ	-10.9337
に設置された	-10.9342
譜	-10.9344
公爵	-10.9344
ないまま	-10.9345
▁1920	-10.9345
▁1947	-10.9346
組み合わせ	-10.9346
韓国の	-10.9346
、1971	-10.9346
東急	-10.9351
ドラゴン	-10.9352
方の	-10.9352
いま	-10.9352
tokyo	-10.9353
ことも多い	-10.9354
加速	-10.9356
後者	-10.9356
の制作	-10.9359
篠	-10.9359
ストン	-10.9359
運輸	-10.936
場所で	-10.9361
大気	-10.9363
を書き	-10.9364
出る	-10.9364
▁エ	-10.9365
離れ	-10.9365
bl	-10.9366
の開催	-10.9369
1902	-10.9371
でもあり	-10.9374
市に	-10.9375
gen	-10.9375
ntt	-10.9376
時期に	-10.9378
、1968	-10.9378
みつ	-10.9378
到達	-10.9381
にいる	-10.9381
理由は	-10.9382
自由に	-10.9382
青森	-10.9388
などにより	-10.9389
埋め	-10.9389
が可能である	-10.939
短編	-10.939
何も	-10.9391
捕手	-10.9393
表紙	-10.9395
大公	-10.9396
予約	-10.9401
グラフィック	-10.9402
評判	-10.9404
ide	-10.9404
-17	-10.9405
いつ	-10.9405
の一部を	-10.9406
電圧	-10.9408
モハ	-10.9409
リーは	-10.941
佐々木	-10.9411
歌舞伎	-10.9412
鎮圧	-10.9413
ノート	-10.9414
気筒	-10.9414
▁ho	-10.9417
騎	-10.9418
として活動	-10.9418
勃発	-10.9418
役員	-10.9418
独自	-10.9419
経過	-10.942
黄金	-10.9422
気持ち	-10.9422
考案	-10.9423
セラ	-10.9423
いわ	-10.9424
幼稚園	-10.9426
09	-10.9429
士官	-10.9431
を送り	-10.9431
郡内	-10.9431
ate	-10.9433
われる	-10.9434
af	-10.9436
日目	-10.9436
学校の	-10.9436
▁ドイツ	-10.9439
に移籍した	-10.9439
1919	-10.944
fifa	-10.9441
kw	-10.9441
造船所	-10.9442
完	-10.9443
と主張した	-10.9445
の内	-10.9445
考	-10.9446
肥	-10.9447
で構成される	-10.9448
山岳	-10.9449
の座	-10.9449
を搭載した	-10.945
and	-10.945
伊豆	-10.9452
信長	-10.9454
襲	-10.9454
最古の	-10.9456
1922	-10.9458
クタ	-10.9459
融合	-10.9461
に本社を置く	-10.9462
消え	-10.9467
伊達	-10.9468
アラブ	-10.947
大幅に	-10.947
るべき	-10.9471
所持	-10.9471
無限	-10.9472
トウ	-10.9473
主義者	-10.9474
施工	-10.9474
兆	-10.9474
大宮	-10.9475
が生じ	-10.9479
と対戦	-10.9481
戒	-10.9482
楽章	-10.9482
pv	-10.9484
さくら	-10.9484
バレエ	-10.9485
ース	-10.9486
博多	-10.9486
保証	-10.9488
の長男	-10.9489
施	-10.9492
大きさ	-10.9493
バルセロナ	-10.9493
だけが	-10.9494
生じる	-10.9496
神宮	-10.9496
の普及	-10.9497
移	-10.9497
帰り	-10.9498
北東部	-10.9498
殺し	-10.9499
コーン	-10.9499
▁you	-10.9499
グラス	-10.9499
的である	-10.9502
それ以外の	-10.9504
最新	-10.9504
aa	-10.9505
の評価	-10.9506
が特徴	-10.9507
の人々	-10.9508
司令	-10.9508
内では	-10.9509
つである	-10.9512
氏が	-10.9512
期間は	-10.9514
サイクル	-10.9514
電化	-10.9515
に到着した	-10.9516
ストロ	-10.9516
炭素	-10.9517
俺	-10.9517
で優勝	-10.9519
町村	-10.952
侵略	-10.952
実業家	-10.9521
怪	-10.9521
車両の	-10.9521
傍ら	-10.9522
出来	-10.9522
同僚	-10.9525
▁マ	-10.9526
ロマン	-10.9527
渡し	-10.953
翌年の	-10.9531
▁1946	-10.9532
戦時	-10.9532
脈	-10.9533
じゃ	-10.9534
ダイヤ	-10.9534
調理	-10.9536
されたため	-10.9537
わら	-10.9538
両者	-10.9538
は存在しない	-10.9539
0.0	-10.9539
謙	-10.954
mu	-10.954
マレーシア	-10.9542
をきっかけに	-10.9542
正教会	-10.9542
とおり	-10.9542
行い	-10.9543
▁アル	-10.9544
めい	-10.9546
講義	-10.9546
書かれている	-10.9547
増え	-10.9548
den	-10.9548
増大	-10.9549
乙	-10.9551
木造	-10.9551
以来の	-10.9552
を守る	-10.9554
の向上	-10.9555
記す	-10.9556
愛知	-10.9556
に出場した	-10.9557
そうした	-10.9561
属の	-10.9562
▁ここでは	-10.9565
次のような	-10.9566
局の	-10.9567
並べ	-10.9571
摂	-10.9574
鈴	-10.9575
▁1956	-10.9575
続いて	-10.9577
▁1948	-10.9577
付近の	-10.9578
発注	-10.9579
音楽院	-10.9579
ランク	-10.958
返し	-10.9581
上げる	-10.9582
トロン	-10.9582
下記	-10.9583
の支援	-10.9584
にも関わらず	-10.9584
汚染	-10.9584
招待	-10.9585
ライヴ	-10.9587
▁郵便番号は	-10.9588
合衆国	-10.959
セントラル	-10.9593
依	-10.9593
グレー	-10.9595
ッパ	-10.9596
壊滅	-10.9598
看板	-10.9599
カナダの	-10.96
を集め	-10.9604
は不明である	-10.9607
戦前	-10.9609
cg	-10.9612
すぎ	-10.9612
以下のように	-10.9616
ギャ	-10.9617
スロー	-10.9619
ドリーム	-10.962
▁1955	-10.962
使用された	-10.962
を卒業	-10.9622
トレード	-10.9628
鳳	-10.9628
ファル	-10.9628
out	-10.9629
不振	-10.963
西方	-10.963
坪	-10.963
盛り	-10.963
近世	-10.9631
三角	-10.9633
fo	-10.9633
に所属し	-10.9634
ベリ	-10.9636
が生まれた	-10.9639
鎌倉時代	-10.9639
アメリカで	-10.964
大量	-10.9641
訴え	-10.9644
貝	-10.9644
マスク	-10.9644
単独で	-10.9646
妨害	-10.9646
世に	-10.9646
講座	-10.9646
候	-10.9648
派生	-10.965
保安	-10.965
小川	-10.965
プラットフォーム	-10.9651
スラ	-10.9653
三浦	-10.9653
興味	-10.9655
ner	-10.9657
ブライアン	-10.9658
ase	-10.966
大尉	-10.9661
福井	-10.9662
省略	-10.9663
英語で	-10.9665
を開始する	-10.9666
ぜん	-10.9666
の管理	-10.9667
徒歩	-10.9669
飾り	-10.9673
時間が	-10.9674
裂	-10.9677
テレビ東京	-10.9679
サーバ	-10.9681
ものではない	-10.9684
ここに	-10.9687
lp	-10.969
翔	-10.9691
範	-10.9692
mk	-10.9694
周囲の	-10.9695
発売した	-10.9696
の最終	-10.9697
海賊	-10.9698
キャプテン	-10.9699
原子力	-10.97
査	-10.97
グラウンド	-10.97
携帯	-10.9701
来た	-10.9706
の設定	-10.9706
1900	-10.9706
期限	-10.9707
得る	-10.9707
審判	-10.9712
マスコミ	-10.9712
扇	-10.9712
彫刻	-10.9713
函数	-10.9713
請	-10.9713
中心部	-10.9715
狭い	-10.9716
含	-10.9716
▁まず	-10.9718
法的	-10.9718
たという	-10.9721
シード	-10.9721
延期	-10.9722
ブロー	-10.9722
境界	-10.9723
▁love	-10.9723
が現れ	-10.9724
に任命された	-10.9724
和歌山県	-10.9724
、1969	-10.9725
の権利	-10.9726
-20	-10.9726
を求めて	-10.9726
年末	-10.973
イズ	-10.9732
艦艇	-10.9736
ther	-10.9736
富山県	-10.9736
1901	-10.9739
進んで	-10.974
成果	-10.974
ハリウッド	-10.9741
南極	-10.9741
ブリッジ	-10.9743
を投げ	-10.9745
二丁目	-10.9746
医薬品	-10.9746
ニコ	-10.9746
he	-10.9749
さと	-10.9751
推	-10.9752
都市計画	-10.9752
爆撃機	-10.9754
02	-10.9757
初戦	-10.9757
吸	-10.9759
sk	-10.9759
覆	-10.976
▁1939	-10.9761
格闘	-10.9764
ウルトラ	-10.9764
を決める	-10.9767
怪獣	-10.9767
かし	-10.9768
助け	-10.977
落語	-10.9774
正確な	-10.9775
添	-10.9776
har	-10.9776
早期	-10.9781
が続いた	-10.9781
高架	-10.9783
長編	-10.9784
結論	-10.9786
等を	-10.9787
8%	-10.9789
ビュ	-10.9789
国立公園	-10.9791
メダル	-10.9793
数百	-10.9794
は不明	-10.9795
を起こした	-10.9798
ボーイ	-10.9798
含まれ	-10.9799
乗員	-10.9799
飲み	-10.9803
1962	-10.9805
国防	-10.9806
編集者	-10.9806
学位	-10.9807
一般の	-10.9808
加賀	-10.9809
国内で	-10.9809
教区	-10.9813
チェック	-10.9813
とても	-10.9815
総会	-10.9816
愛媛県	-10.9818
とりわけ	-10.9818
賛成	-10.9818
打者	-10.9819
1963	-10.982
、1964	-10.982
隔	-10.9823
ls	-10.9824
に至るまで	-10.9825
着用	-10.9826
ven	-10.9827
無い	-10.9827
烈	-10.983
各社	-10.9832
性が	-10.9833
駆	-10.9833
物の	-10.9834
ひら	-10.9835
という名前	-10.9837
▁天正	-10.9837
同名の	-10.9842
ッコ	-10.9843
力が	-10.9844
海軍の	-10.9844
心理学	-10.9848
が非常に	-10.985
形は	-10.985
猪	-10.9851
選手が	-10.9851
備	-10.9852
▁[	-10.9854
最高の	-10.9859
死刑	-10.986
いで	-10.9862
上記	-10.9863
偶然	-10.9864
エディ	-10.9864
抑制	-10.9865
4%	-10.9866
スピ	-10.9866
カーブ	-10.9866
固有	-10.9868
ポケモン	-10.9868
新作	-10.9869
1898	-10.9873
青山	-10.9874
の孫	-10.9874
は後に	-10.9876
実況	-10.9877
▁music	-10.9877
南西部	-10.9881
欄	-10.9883
に立ち	-10.9883
受け入れ	-10.9886
決して	-10.9886
重賞	-10.9887
は基本的に	-10.9887
ちゅうがっこう	-10.9888
カリフォルニア	-10.9889
以前から	-10.9889
付ける	-10.989
当初から	-10.9892
日本における	-10.9892
リゾート	-10.9896
種牡馬	-10.9896
エンジンは	-10.9897
斎藤	-10.9899
)、「	-10.9901
が存在した	-10.9901
反射	-10.9902
牧場	-10.9904
を見せた	-10.9905
後継	-10.9906
の試合	-10.9906
てる	-10.9908
の経営	-10.9908
名称は	-10.9908
架	-10.991
集会	-10.9912
人員	-10.9912
を考える	-10.9914
ペリ	-10.9914
充実	-10.9916
度々	-10.9917
ピンク	-10.9917
るもの	-10.9917
の設立	-10.9918
傘下の	-10.9918
繰り	-10.9919
概ね	-10.992
認め	-10.9921
ドロ	-10.9923
辞任	-10.9923
ラジ	-10.9929
主として	-10.9931
の範囲	-10.9936
競合	-10.9936
役の	-10.9937
結果的に	-10.9937
に登場	-10.994
abc	-10.994
日曜日	-10.9943
拘束	-10.9943
に貢献	-10.9944
人々が	-10.9947
登記	-10.9947
大学名誉教授	-10.9948
▁1954	-10.9948
こととなる	-10.9948
土佐	-10.9948
の記述	-10.9949
マグ	-10.9949
立法	-10.9951
年頃に	-10.9951
本国	-10.9951
待ち	-10.9951
月からは	-10.9953
有限	-10.9955
催	-10.9956
</	-10.9956
同国	-10.9957
悪い	-10.9958
徳島県	-10.9958
に出場し	-10.9958
ニューヨーク州	-10.9959
模型	-10.996
逃亡	-10.996
で第	-10.996
捜索	-10.9962
概	-10.9963
染	-10.9965
直前	-10.9965
党の	-10.9966
出席	-10.997
己	-10.9971
▁jr	-10.9971
販売されている	-10.9972
冷却	-10.9974
イチ	-10.9975
熟	-10.9975
線の駅である	-10.9976
レーザー	-10.9977
▁第二次世界大戦	-10.9977
しまう	-10.9978
瓦	-10.9979
も見られる	-10.998
mr	-10.998
が含まれる	-10.9987
が運営する	-10.9988
ブロン	-10.9989
方に	-10.9989
不可	-10.999
▁一般に	-10.999
大戦	-10.9991
熊野	-10.9993
ないと	-10.9995
▁本作	-10.9996
復元	-10.9996
の方	-10.9997
恭	-10.9998
まさ	-10.9998
にあたって	-10.9999
甲斐	-11.0001
保健	-11.0001
偵察	-11.0002
月下旬	-11.0003
を失い	-11.0003
本拠地	-11.0003
劇場版	-11.0004
パッ	-11.0004
描いた	-11.0004
甲子園	-11.0005
懸念	-11.0006
餌	-11.0008
法令	-11.0008
移管	-11.0008
ct	-11.0011
置き	-11.0011
佐賀	-11.0012
に進出	-11.0014
判事	-11.0015
夫の	-11.0015
iso	-11.0016
▁オ	-11.0019
ハーフ	-11.0019
ina	-11.002
緒	-11.0021
pt	-11.0024
rom	-11.0025
マドリード	-11.0027
雌	-11.0029
現状	-11.003
付けた	-11.003
res	-11.0031
標本	-11.0032
ギル	-11.0034
ことができた	-11.0037
春日	-11.0038
後述の	-11.0038
フロー	-11.004
依存	-11.0041
融	-11.0041
出店	-11.0041
時刻	-11.0042
は同	-11.0043
諏訪	-11.0044
南米	-11.0047
ロケ	-11.0048
重力	-11.0049
出して	-11.005
使われていた	-11.0051
クラスの	-11.0051
を挙げ	-11.0052
の構造	-11.0052
天使	-11.0053
に登場した	-11.0053
の南	-11.0053
の力	-11.0054
与えられる	-11.0056
世界遺産	-11.0056
神の	-11.0058
出馬	-11.006
磁気	-11.0064
を実施	-11.0069
の主	-11.007
1946	-11.007
永禄	-11.007
リム	-11.007
プロテスタント	-11.0071
を有し	-11.0071
アナログ	-11.0072
にあって	-11.0074
スペインの	-11.0075
選考	-11.0075
誕生した	-11.0076
付加	-11.0076
消費者	-11.0078
レーション	-11.0078
提携	-11.0079
二郎	-11.0081
7%	-11.0081
▁na	-11.0082
が増え	-11.0082
中川	-11.0085
法第	-11.0085
を流れる	-11.0086
市街	-11.0087
91	-11.0087
1921	-11.0088
虐殺	-11.0088
と称する	-11.0089
過程で	-11.009
溶	-11.009
道を	-11.009
、1967	-11.0091
▁live	-11.0091
提唱	-11.0092
でありながら	-11.0093
靴	-11.0093
踏み	-11.0094
短く	-11.0095
部隊の	-11.0097
主人公の	-11.0097
高校時代	-11.0098
ループ	-11.0098
マツ	-11.0098
事実上の	-11.0099
を加え	-11.01
そば	-11.0101
版は	-11.0102
フォール	-11.0105
act	-11.0105
人口は	-11.0106
プリンス	-11.0107
入院	-11.0109
men	-11.0111
日本でも	-11.0113
感謝	-11.0113
祥	-11.0115
隣接	-11.0116
が収録されている	-11.0116
▁1949	-11.0117
逸	-11.0117
開局	-11.0118
砲塔	-11.0119
の人口は	-11.0119
燃焼	-11.0122
東日本大震災	-11.0123
怒	-11.0123
fl	-11.0124
学長	-11.0124
▁1952	-11.0126
終わった	-11.0126
称号	-11.0127
市と	-11.0131
もいる	-11.0132
ベクトル	-11.0132
不可能	-11.0133
"』	-11.0133
都合	-11.0133
仮面ライダー	-11.0135
カタ	-11.0137
摩	-11.0138
と同一	-11.014
ミュー	-11.014
her	-11.0141
妻の	-11.0145
ライダー	-11.0148
暮らし	-11.0149
はその後	-11.0149
の種類	-11.015
を立て	-11.015
家老	-11.0151
登場し	-11.0151
うちに	-11.0152
ボルト	-11.0154
曲を	-11.0156
の人気	-11.0157
と考える	-11.0157
モンテ	-11.0158
▁is	-11.0159
158	-11.0161
併せて	-11.0161
脅威	-11.0161
牧師	-11.0164
▁ゲーム	-11.0169
るか	-11.017
県立	-11.0171
明け	-11.0171
塁	-11.0172
▁1957	-11.0172
年代後半	-11.0172
みず	-11.0173
講演	-11.0174
番地	-11.0176
を掲げ	-11.0176
妊娠	-11.0177
日をもって	-11.0177
連載された	-11.0179
定められた	-11.0182
並み	-11.0183
授	-11.0185
壊	-11.0186
を置く	-11.0187
がなされた	-11.0187
平行	-11.0187
公社	-11.0188
景観	-11.0189
ぐん	-11.0189
リカ	-11.0192
長岡	-11.0192
水戸	-11.0193
アリス	-11.0193
に使われる	-11.0194
ガイド	-11.0195
違法	-11.0196
代数	-11.0197
関連の	-11.0198
ゲージ	-11.02
しつつ	-11.0201
キハ	-11.0202
強度	-11.0203
仕組み	-11.0205
を備えた	-11.0206
ロープ	-11.0206
キム	-11.0207
に帰	-11.0209
が起こり	-11.021
▁この間	-11.021
を抱え	-11.021
駅と	-11.0211
▁bo	-11.0211
場合が多い	-11.0213
増加した	-11.0213
盆地	-11.0213
の立場	-11.0214
たけ	-11.0215
シュート	-11.0216
157	-11.0217
見方	-11.022
▁大阪	-11.0221
1914	-11.0223
適切な	-11.0225
▁1953	-11.0226
用いる	-11.0227
山下	-11.0229
していなかった	-11.0229
桐	-11.023
損失	-11.023
石井	-11.023
取り組み	-11.023
締め	-11.0232
の諸	-11.0234
トリー	-11.0235
透明	-11.0236
トール	-11.0237
白色	-11.0237
bgm	-11.0238
制約	-11.0238
トニー	-11.0239
クイーン	-11.024
かせ	-11.0241
半ば	-11.0243
1943	-11.0244
が入る	-11.0245
年連続で	-11.0246
大いに	-11.025
を使用し	-11.0251
1896	-11.0251
、1965	-11.0252
喪失	-11.0253
放射	-11.0254
スペイン語	-11.0255
支流	-11.0255
改め	-11.0262
弱い	-11.0264
改編	-11.0266
設置された	-11.0267
前線	-11.0267
劣	-11.0268
田町	-11.0268
にちなんで	-11.0268
政府が	-11.0269
の差	-11.0272
涙	-11.0272
ひとつ	-11.0273
が始まる	-11.0273
の花	-11.0274
認められ	-11.0277
形成された	-11.0278
家が	-11.0278
表彰	-11.0279
秀吉	-11.0281
学年	-11.0282
野菜	-11.0283
検証	-11.0283
万石	-11.0286
の不	-11.0287
胤	-11.0288
はいずれも	-11.0289
を立ち上げ	-11.0289
正義	-11.0292
垂直	-11.0292
だけではなく	-11.0293
取った	-11.0296
とされていた	-11.0297
残された	-11.0298
ぜ	-11.0299
種子	-11.03
実家	-11.0302
テキサス	-11.0304
1899	-11.0305
瞬間	-11.0306
試作	-11.0307
垂	-11.0308
路線バス	-11.0308
ノル	-11.0309
を押し	-11.0309
ヨーク	-11.031
はアメリカ	-11.0312
稀	-11.0314
すべく	-11.0314
兵力	-11.0314
他社	-11.0316
年時点で	-11.0316
クレー	-11.0317
されているが	-11.0319
東芝	-11.0321
の代わりに	-11.0321
合唱	-11.0322
投与	-11.0323
達が	-11.0326
部分が	-11.0327
次男	-11.033
女神	-11.0333
関係の	-11.0333
たん	-11.0335
老朽化	-11.0335
トマス	-11.0337
てから	-11.0337
抑え	-11.0337
はさらに	-11.0338
と考えた	-11.0339
の町	-11.034
ファンタジー	-11.034
替	-11.0342
広報	-11.0343
られており	-11.0343
ぞう	-11.0343
測	-11.0343
大ヒット	-11.0345
徹底	-11.0345
回答	-11.0349
仕事を	-11.035
建造物	-11.035
横断	-11.0351
鶏	-11.0352
1920	-11.0354
丈	-11.0356
双方	-11.0357
技能	-11.0359
03	-11.036
ギタリスト	-11.0361
駅である	-11.0362
に昇格	-11.0363
を呼び	-11.0363
職人	-11.0363
1897	-11.0364
かかった	-11.0369
通学	-11.037
あくまで	-11.0371
用意	-11.0374
引っ	-11.0374
の後継	-11.0374
のほかに	-11.0374
にほん	-11.0377
▁カ	-11.0379
地域に	-11.0383
に敗れた	-11.0383
ビーム	-11.0385
に出演した	-11.0385
砲兵	-11.0386
兄の	-11.0386
6%	-11.0386
フォース	-11.0387
スクリーン	-11.0388
▁li	-11.0389
北軍	-11.039
をかけて	-11.0391
を設立した	-11.0392
果実	-11.0393
所有者	-11.0394
に改名	-11.0394
正確に	-11.0395
曾	-11.0395
野田	-11.0396
島に	-11.0397
が出た	-11.0398
事から	-11.0398
京阪	-11.0399
一丁目	-11.0401
-18	-11.0401
体育館	-11.0402
ばん	-11.0402
ていること	-11.0403
自体が	-11.0404
フットボール	-11.0405
1947	-11.041
新設された	-11.041
逮捕された	-11.0413
不良	-11.0414
が設置され	-11.0415
今まで	-11.0417
トゥス	-11.0418
じょ	-11.0419
の住民	-11.042
ard	-11.042
168	-11.0421
する際に	-11.0421
サス	-11.0426
道場	-11.0429
チャレンジ	-11.043
ルズ	-11.043
走る	-11.0432
|	-11.0432
新しく	-11.0433
用いられた	-11.0433
再放送	-11.0433
パーティー	-11.0433
少佐	-11.0434
コミュニケーション	-11.0435
ならず	-11.0436
識	-11.0436
使用した	-11.0436
出生	-11.0436
に似た	-11.0437
ヴォー	-11.0437
版が	-11.0438
近畿	-11.0439
ラフ	-11.0439
市役所	-11.044
砂漠	-11.0441
ことと	-11.0442
近隣	-11.0444
分かれ	-11.0447
1942	-11.0447
▁go	-11.0448
南アフリカ	-11.0448
慶応	-11.0449
たのは	-11.045
導入された	-11.045
選手の	-11.045
間隔	-11.045
予防	-11.0451
▁1937	-11.0452
うまく	-11.0453
を継続	-11.0456
タリ	-11.0457
が描かれている	-11.0457
cal	-11.0459
わる	-11.046
伝達	-11.046
星の	-11.0461
04	-11.0463
つもり	-11.0464
満足	-11.0464
を取得	-11.0465
クーデター	-11.0466
リヤ	-11.0466
天保	-11.0466
主題歌	-11.0468
が出る	-11.0471
の基本	-11.0471
の一覧	-11.0471
公式に	-11.0472
cr	-11.0472
世と	-11.0475
gar	-11.0476
があるため	-11.0477
書記	-11.0477
優勝を果たした	-11.048
β	-11.048
革	-11.0481
話し	-11.0481
汁	-11.0482
ハッ	-11.0482
篤	-11.0482
cpu	-11.0483
人々の	-11.0485
選手権大会	-11.0486
1917	-11.0487
去	-11.0488
宮城	-11.049
1941	-11.0491
浦和	-11.0498
零	-11.0498
尉	-11.05
専属	-11.0503
鞍	-11.0503
ウェールズ	-11.0503
テキスト	-11.0504
モント	-11.0508
調達	-11.0509
性的	-11.051
の戦闘	-11.051
中学生	-11.0511
返還	-11.0513
債務	-11.0519
万枚	-11.052
本町	-11.052
を一	-11.0521
舌	-11.0521
述べる	-11.0521
折り	-11.0524
狼	-11.0524
貨幣	-11.0524
ドイツ人	-11.0524
が盛ん	-11.0525
並ぶ	-11.0526
アマ	-11.0527
1910	-11.0528
ッパー	-11.0528
農村	-11.0529
子と	-11.0529
科学者	-11.0531
han	-11.0532
初となる	-11.0534
はかつて	-11.0535
号車	-11.0536
ang	-11.0539
hu	-11.054
たびたび	-11.0542
技師	-11.0544
迷	-11.0544
綾	-11.0546
排除	-11.0546
タケ	-11.0548
の定義	-11.055
二軍	-11.0551
裸	-11.0552
階建て	-11.0552
かる	-11.0554
の大半	-11.0554
▁愛称は	-11.0556
のシングル	-11.0557
近江	-11.0557
のタイトル	-11.0558
最上	-11.0558
最近	-11.0559
ウィリアムズ	-11.0559
これも	-11.056
甲府	-11.056
太平洋戦争	-11.056
安政	-11.0563
カ国	-11.0564
ハンド	-11.0565
レビュー	-11.0566
固め	-11.0566
大聖堂	-11.0566
小松	-11.0567
を発表し	-11.0568
1912	-11.0568
索	-11.0572
定員	-11.0572
トリオ	-11.0573
響	-11.0573
▁今	-11.0574
民主主義	-11.0575
受けた	-11.0578
に転	-11.0578
天井	-11.0578
障害者	-11.0579
完結	-11.058
りする	-11.0581
小説家	-11.0583
呼吸	-11.0584
選挙で	-11.0585
瓶	-11.0586
してから	-11.0587
1871	-11.0589
デビューした	-11.0589
est	-11.059
▁以前は	-11.0591
誘	-11.0591
1961	-11.0593
をかけ	-11.0596
▁アメリカ合衆国	-11.0597
▁ba	-11.0598
159	-11.0599
機は	-11.0602
ってくる	-11.0602
土曜日	-11.0602
を集めた	-11.0604
長崎県	-11.0608
できるように	-11.0608
ufc	-11.0609
具体的な	-11.0609
3-0	-11.0611
日本映画	-11.0612
唄	-11.0617
ica	-11.0617
ダニエル	-11.0619
ジング	-11.0619
使用される	-11.062
は当時	-11.0623
ベア	-11.0624
敵対	-11.0624
作品が	-11.0626
rc	-11.0628
次いで	-11.0628
ラック	-11.0629
石川県	-11.063
が起こった	-11.0631
続けている	-11.0631
07	-11.0632
を採用している	-11.0632
海戦	-11.0633
を発見した	-11.0633
▁略称は	-11.0634
就航	-11.0636
及	-11.0637
領地	-11.0637
用として	-11.0638
みんな	-11.0639
レク	-11.064
習慣	-11.064
、1945	-11.0642
見られる	-11.0644
出身者	-11.0646
世紀から	-11.0649
られない	-11.0649
部分を	-11.065
を組み	-11.0653
oc	-11.0653
子孫	-11.0655
麗	-11.0656
グレード	-11.0657
売れ	-11.0659
浅草	-11.066
の約	-11.0661
の支配	-11.0662
有料	-11.0663
ロマ	-11.0663
たら	-11.0664
させている	-11.0664
水中	-11.0665
加えられ	-11.0665
豊かな	-11.0667
アドレス	-11.067
の愛称	-11.067
仮名	-11.067
していたため	-11.0671
右翼	-11.0671
触れ	-11.0673
照明	-11.0674
安全保障	-11.0676
スタンド	-11.0676
南軍	-11.0676
鷲	-11.0677
代行	-11.0677
部が	-11.0678
タナ	-11.0679
阻止	-11.0679
水上	-11.068
世界観	-11.0681
に終わり	-11.0682
ダーク	-11.0685
に続いて	-11.0685
買い	-11.0686
所長	-11.0686
弾薬	-11.0687
検定	-11.0688
肝	-11.0688
のイメージ	-11.069
om	-11.0691
要件	-11.0693
反撃	-11.0694
が困難	-11.0695
麓	-11.0695
ブレイ	-11.0695
全身	-11.0697
を搭載し	-11.0699
に分かれ	-11.07
アメリカ人	-11.0701
▁so	-11.0703
0.5	-11.0704
▁–	-11.0705
出て	-11.0708
レア	-11.0709
ワークス	-11.071
級の	-11.0712
大使館	-11.0712
北条	-11.0714
最高位	-11.0715
職務	-11.0718
実質的に	-11.0718
市販	-11.072
起訴	-11.0722
日米	-11.0724
槍	-11.0724
カトリック教会	-11.0725
社は	-11.0726
足利	-11.0726
経営者	-11.0728
類の	-11.0729
界の	-11.073
討伐	-11.0731
広がり	-11.0731
すぎる	-11.0732
聞き	-11.0733
首位	-11.0733
激しく	-11.0736
枚目	-11.0737
もあったが	-11.0739
バラエティ番組	-11.074
皇太子	-11.074
アイランド	-11.0741
が担当	-11.0741
インドの	-11.0743
秘書	-11.0744
を決め	-11.0744
アシスタント	-11.0745
ボブ	-11.0746
は少ない	-11.0749
年ぶり	-11.0753
cp	-11.0753
時間は	-11.0753
力士	-11.0755
すこと	-11.0756
上京	-11.0757
元素	-11.0757
350	-11.0758
役で	-11.076
流入	-11.0761
頂点	-11.0763
していること	-11.0765
丘陵	-11.0767
自衛隊	-11.0767
ハリ	-11.0769
バイク	-11.077
遷	-11.0772
リーナ	-11.0772
ヴェネツィア	-11.0774
精度	-11.0775
取られ	-11.0777
の運用	-11.0777
ran	-11.0778
編集長	-11.0778
商店	-11.078
ーム	-11.0781
疑い	-11.0782
our	-11.0784
繰り返し	-11.0786
を訪れた	-11.0789
06	-11.0791
成田	-11.0791
放送される	-11.0791
閣	-11.0792
的なもの	-11.0794
開催されている	-11.0794
ターボ	-11.0795
それ以前	-11.0796
緩	-11.0797
必ずしも	-11.0797
立つ	-11.0799
住所	-11.08
というもの	-11.08
を基に	-11.0801
台の	-11.0801
人口の	-11.0802
作品で	-11.0802
don	-11.0803
チャンス	-11.0807
運命	-11.0808
臨床	-11.0808
幾	-11.0808
に出る	-11.0809
の企画	-11.0809
水を	-11.0809
歳から	-11.081
の総	-11.081
の政治家	-11.0811
作品に	-11.0813
日野	-11.0813
識別	-11.0817
red	-11.0818
メアリー	-11.0819
175	-11.0821
が残っている	-11.0822
line	-11.0822
戦後の	-11.0823
態	-11.0823
ボウ	-11.0825
関節	-11.0825
いずれ	-11.0826
いつも	-11.0827
等が	-11.0828
演習	-11.083
切る	-11.083
電池	-11.0831
考慮	-11.0831
無効	-11.0832
リウム	-11.0832
放送されていた	-11.0833
リアル	-11.0834
カッ	-11.0836
土壌	-11.0836
タキ	-11.0836
生物学	-11.0837
外見	-11.0838
閲覧	-11.0839
マンは	-11.0841
金を	-11.0843
争	-11.0844
是	-11.0844
ショット	-11.0845
の一部が	-11.0846
墨	-11.085
個々の	-11.0853
番目	-11.0853
bb	-11.0853
辞職	-11.0853
附	-11.0854
落下	-11.0854
日の対	-11.0855
獄	-11.0857
電流	-11.0857
トライ	-11.0858
mor	-11.0863
を終えた	-11.0864
まん	-11.0864
映画館	-11.0865
こちら	-11.0867
不要	-11.0867
陣営	-11.0867
対空	-11.0868
ピエール	-11.0869
を上げ	-11.0869
これまでの	-11.0869
大量に	-11.087
地獄	-11.087
は既に	-11.0871
プレミアリーグ	-11.0872
は各	-11.0872
信者	-11.0872
リレー	-11.0873
の建物	-11.0873
テール	-11.0873
遣	-11.0873
大型の	-11.0874
しかった	-11.0874
楼	-11.0877
と比べて	-11.0878
川町	-11.0878
シカ	-11.0878
以後は	-11.0878
テキサス州	-11.0879
取り付け	-11.0879
を唱え	-11.088
リバー	-11.088
海底	-11.088
を図った	-11.0881
▁1951	-11.0882
ロシア語	-11.0882
城を	-11.0882
突破	-11.0883
連合国	-11.0884
1880	-11.0885
した上で	-11.0887
ova	-11.0887
の要素	-11.0888
少数	-11.0888
と結婚し	-11.089
適応	-11.0891
人々は	-11.0892
済み	-11.0894
cf	-11.0894
駆逐隊	-11.0895
、1966	-11.0895
を演じた	-11.0895
を行って	-11.0901
三木	-11.0902
心の	-11.0902
広大な	-11.0903
角度	-11.0904
live	-11.0905
データベース	-11.0905
▁1938	-11.0905
ヴィア	-11.0906
バス停	-11.0906
port	-11.0907
max	-11.0909
はイギリス	-11.0909
和歌山	-11.0911
に追い	-11.0912
は比較的	-11.0915
イト	-11.0915
美濃	-11.0915
1870	-11.0919
消	-11.0923
かけて	-11.0924
浮上	-11.0925
▁ar	-11.0925
と改称	-11.0926
下位	-11.0928
突き	-11.0929
ah	-11.093
ワル	-11.0931
排	-11.0936
金曜日	-11.0936
カナ	-11.0937
しろ	-11.0937
番人気	-11.094
賜	-11.0942
リトル	-11.0943
小山	-11.0945
芸術家	-11.0945
に掲載された	-11.0948
豊田	-11.0948
を使用して	-11.0951
禄	-11.0952
特撮	-11.0952
救出	-11.0952
肉体	-11.0955
変わって	-11.0955
で敗れた	-11.0956
ind	-11.0957
参加している	-11.0957
移行	-11.0959
の土地	-11.096
食料	-11.096
ニューヨーク市	-11.096
ibm	-11.0963
ョ	-11.0967
拠	-11.0968
世界で	-11.0968
sion	-11.0968
をとった	-11.0969
回避	-11.0969
1948	-11.0969
会談	-11.0969
降板	-11.0969
の勝利	-11.097
と語った	-11.0972
徐	-11.0974
したところ	-11.0975
神殿	-11.0978
次のように	-11.0978
前回	-11.0979
小学生	-11.0981
の目	-11.0982
傍	-11.0984
最小	-11.0986
震	-11.0989
倒れ	-11.0989
単なる	-11.099
場で	-11.099
参謀	-11.0991
様に	-11.0992
を下	-11.0993
込まれた	-11.0995
年目の	-11.0996
qui	-11.0997
せき	-11.1
謝罪	-11.1
をそれぞれ	-11.1001
評議会	-11.1001
対処	-11.1002
されておらず	-11.1002
発生した	-11.1008
を続ける	-11.1008
の多くが	-11.1008
敵の	-11.1009
語っている	-11.101
使者	-11.101
開館	-11.101
繁栄	-11.101
機関銃	-11.1011
ボロ	-11.1012
鐘	-11.1012
ドリー	-11.1012
john	-11.1015
革新	-11.1019
ヴィチ	-11.102
バリー	-11.1021
プロセッサ	-11.1022
を表明した	-11.1023
1958	-11.1025
異なり	-11.1025
はず	-11.1025
神田	-11.1025
コンクリート	-11.1027
かかる	-11.103
隠れ	-11.103
抱	-11.1032
京都市	-11.1033
なのか	-11.1034
人から	-11.1034
ガーデン	-11.1035
盛岡	-11.1035
▁records	-11.1036
oh	-11.1037
しているため	-11.1037
の両	-11.1038
方法で	-11.1039
異なっている	-11.1039
作風	-11.1039
頃には	-11.104
を切り	-11.104
に引き	-11.1041
と発表した	-11.1041
ラッ	-11.1042
▁初代	-11.1045
▁1936	-11.1046
織田	-11.1046
実質	-11.1046
とくに	-11.1048
変身	-11.1048
vol	-11.1048
こともできる	-11.105
母音	-11.1052
3,000	-11.1052
エム	-11.1053
南東部	-11.1055
タラ	-11.1055
造り	-11.1055
毎に	-11.1056
sha	-11.1056
内にある	-11.1057
レオン	-11.1061
アリーナ	-11.1062
年春	-11.1066
相手に	-11.1067
らと共に	-11.1068
産の	-11.1069
が開発した	-11.1069
袖	-11.1069
騎乗	-11.1069
解雇	-11.107
期生	-11.1071
ミナ	-11.1072
にそれぞれ	-11.1072
邪	-11.1073
成功した	-11.1073
の実	-11.1074
の墓	-11.1075
を変え	-11.1076
部分に	-11.1077
もあるが	-11.1077
と比較して	-11.1078
、1963	-11.1079
1949	-11.1082
▁ex	-11.1085
貧	-11.1086
麦	-11.1087
物体	-11.1087
を残す	-11.1088
に対応	-11.1089
勘	-11.1089
記載されている	-11.109
に就任し	-11.1091
かた	-11.1092
のとき	-11.1093
のひとつである	-11.1093
の拡大	-11.1093
以上に	-11.1093
増強	-11.1094
東京帝国大学	-11.1094
芝居	-11.1094
ッキング	-11.1098
未満	-11.1101
ダス	-11.1104
開催される	-11.1104
ナム	-11.1105
アンダー	-11.1105
販	-11.1106
本形式	-11.1106
ミラノ	-11.1107
を収録した	-11.1107
廻	-11.1107
藤田	-11.1107
門下	-11.1108
ことによる	-11.1108
相模	-11.111
東南アジア	-11.1111
fer	-11.1114
傾斜	-11.1115
詳しく	-11.112
ません	-11.112
信濃	-11.1121
著しく	-11.1122
与えられた	-11.1122
設定されている	-11.1123
トゥル	-11.1124
教養	-11.1124
top	-11.1124
tre	-11.1125
生まれた	-11.1125
に転じ	-11.1126
スケート	-11.1127
ウリ	-11.1128
哉	-11.1129
間は	-11.113
の発売	-11.113
の初	-11.1131
切った	-11.1135
1895	-11.1136
和解	-11.1136
、1947	-11.1138
詳細	-11.114
ダイヤモンド	-11.1141
煮	-11.1142
心臓	-11.1145
wba	-11.1147
もともと	-11.1147
大島	-11.1147
青春	-11.1147
ボーン	-11.1148
セリエ	-11.1148
ウルトラマン	-11.1149
ズム	-11.115
1955	-11.1151
倉庫	-11.1152
優位	-11.1153
アシスト	-11.1153
afc	-11.1153
党首	-11.1155
9%	-11.1157
知名度	-11.1158
削	-11.1158
低く	-11.1159
没した	-11.116
イラ	-11.1162
の路線	-11.1164
セカンド	-11.1165
king	-11.1165
年半	-11.1169
審議	-11.1169
陸上競技	-11.1169
収益	-11.117
こうとうがっこう	-11.1173
の一員	-11.1173
神奈川	-11.1176
子に	-11.1176
ものが多い	-11.1177
歌い	-11.1178
さらには	-11.1178
しかし	-11.1178
国産	-11.1178
の木	-11.118
カウ	-11.1184
んじ	-11.1185
横浜市	-11.1186
車両は	-11.1186
法廷	-11.1187
労働組合	-11.1188
を誇る	-11.1189
声明	-11.1189
燕	-11.119
福田	-11.1191
おい	-11.1192
の計	-11.1197
として知られている	-11.1197
渓	-11.1198
-11	-11.1198
準決勝で	-11.1199
書店	-11.12
歌う	-11.12
中立	-11.12
描	-11.1203
決勝戦	-11.1203
手で	-11.1204
ムスリム	-11.1204
妖怪	-11.1204
経歴	-11.1205
野党	-11.1206
yu	-11.1207
が最も	-11.1209
視聴	-11.1211
夏季	-11.1211
出場機会	-11.1212
レフ	-11.1212
代表取締役社長	-11.1215
置かれ	-11.1216
次に	-11.1216
マルクス	-11.1217
併合	-11.1218
高知	-11.1219
二人の	-11.122
代表の	-11.122
総務	-11.122
島津	-11.122
を目的として	-11.1221
無し	-11.1222
西ドイツ	-11.1229
jp	-11.1229
胴体	-11.1231
信用	-11.1231
嫁	-11.1233
の東	-11.1233
老人	-11.1233
出口	-11.1233
分間	-11.1239
近代化	-11.1239
オレンジ	-11.124
渡り	-11.124
ずる	-11.124
後藤	-11.1241
室町時代	-11.1241
の可能性	-11.1243
収録曲	-11.1244
▁他にも	-11.1248
出身で	-11.1248
招集	-11.1249
搭乗	-11.1249
が生じる	-11.125
経済的	-11.125
イア	-11.1251
見える	-11.1251
皇子	-11.1253
期には	-11.1257
点は	-11.1258
3.5	-11.1258
ジェン	-11.1258
放送されている	-11.1259
近くに	-11.126
稼働	-11.1261
三井	-11.1263
これらは	-11.1263
に進学	-11.1263
ことができ	-11.1263
区画	-11.1265
塊	-11.1266
遠く	-11.1268
新聞社	-11.1269
食べる	-11.1269
終盤	-11.127
なくても	-11.1271
影響を受けた	-11.1271
猟	-11.1272
の規定	-11.1272
正体	-11.1273
どちらも	-11.1274
二つ	-11.1274
ーヌ	-11.1275
いし	-11.1275
就職	-11.1275
が主流	-11.1275
レスリング	-11.1276
流出	-11.1277
タム	-11.1277
レディ	-11.1277
ることになる	-11.1278
越後	-11.128
厳しく	-11.128
トラン	-11.1281
1913	-11.1283
経由で	-11.1285
藩士	-11.1286
je	-11.1286
▁映画	-11.1286
同作	-11.1288
補佐	-11.129
主演の	-11.129
情勢	-11.129
もし	-11.1292
裁	-11.1295
戦争の	-11.1296
罰	-11.1297
協会の	-11.1298
ペルー	-11.1298
の発生	-11.1299
を目指して	-11.1301
マーティン	-11.1302
ヶ所	-11.1304
タイトルは	-11.1306
初優勝	-11.1307
単純な	-11.1308
ハウゼン	-11.1309
に生まれ	-11.1311
河原	-11.1312
木材	-11.1315
犠牲	-11.1315
モバイル	-11.1316
庶民	-11.1318
シフト	-11.1318
に立つ	-11.1319
地で	-11.1319
の伝統	-11.1319
中東	-11.132
最後まで	-11.132
アンナ	-11.132
倶楽部	-11.1321
起こる	-11.1322
創業者	-11.1322
を超え	-11.1322
三重	-11.1324
ユーゴスラビア	-11.1325
彼に	-11.1325
噴火	-11.1326
をつけ	-11.1328
江戸時代の	-11.1329
ジル	-11.1329
エラ	-11.133
360	-11.133
探	-11.1331
▁ある	-11.1333
警告	-11.1335
の距離	-11.1335
、1948	-11.1336
スターズ	-11.1337
lin	-11.134
葬儀	-11.1341
親友	-11.1342
スケール	-11.1342
1959	-11.1343
のもとに	-11.1345
浜松	-11.1347
も行っている	-11.1348
謎	-11.1348
ラッシュ	-11.135
の機能	-11.1351
上杉	-11.1354
ているため	-11.1354
nu	-11.1354
を開催	-11.1356
ザル	-11.1356
出場し	-11.1359
出雲	-11.1359
おく	-11.1359
友好	-11.136
hot	-11.1361
アンテナ	-11.1361
日本国内で	-11.1364
スが	-11.1365
を伴う	-11.1369
会社である	-11.1371
死体	-11.1371
最終回	-11.1372
マニ	-11.1375
学研究科	-11.1379
橘	-11.1382
▁出典	-11.1384
沿いに	-11.1386
ニール	-11.139
開戦	-11.1391
ではないが	-11.1392
を結成し	-11.1392
、1962	-11.1392
交響楽団	-11.1392
▁従って	-11.1393
1956	-11.1393
香川県	-11.1394
誤り	-11.1394
らとともに	-11.1397
朝日放送	-11.1397
アーサー	-11.1399
出荷	-11.14
科目	-11.14
の登場	-11.1404
パーセント	-11.1405
fr	-11.1405
椎	-11.1408
ユニオン	-11.1409
の車両	-11.1409
1952	-11.141
ary	-11.1411
ロッテ	-11.1411
大学大学院	-11.1412
戦死した	-11.1413
絡	-11.1414
が開発	-11.1415
日光	-11.1416
文政	-11.1419
列車は	-11.1421
あら	-11.1421
、1961	-11.1422
このとき	-11.1423
サッカー選手	-11.1424
同日	-11.1426
1911	-11.1426
ひとり	-11.1428
埼玉	-11.1428
セッション	-11.1428
ei	-11.1428
表示される	-11.143
やって	-11.1432
を離れ	-11.1432
ボイ	-11.1432
ーネ	-11.1432
装着	-11.1434
ピュ	-11.1435
隠居	-11.1436
上述の	-11.1437
スマートフォン	-11.144
流れる	-11.1442
▁+	-11.1444
▁血液型は	-11.1444
無事	-11.1446
を挟んで	-11.1447
並びに	-11.1448
関わり	-11.1448
簡単に	-11.1448
普通の	-11.1449
ical	-11.1449
ことになり	-11.1451
家康	-11.1451
珍	-11.1451
の平均	-11.1451
乗車券	-11.1454
没後	-11.1455
way	-11.1456
るまで	-11.1456
胆	-11.1457
単純	-11.1458
捕獲	-11.1459
の西	-11.1464
作曲した	-11.1465
支給	-11.1465
殺された	-11.1467
のライブ	-11.1468
予定である	-11.1469
蜂起	-11.1469
かける	-11.147
住む	-11.147
基金	-11.147
失点	-11.1471
捧げ	-11.1472
南京	-11.1475
伏見	-11.1477
イド	-11.1478
すい	-11.1479
マンガ	-11.148
形を	-11.148
が成立した	-11.148
ピット	-11.1482
別に	-11.1482
契約を結んだ	-11.1484
コンパクト	-11.1486
の小説	-11.1487
イタリア共和国	-11.1487
オオ	-11.1489
盗塁	-11.1492
fu	-11.1493
小学館	-11.1495
▁we	-11.1497
学科卒業	-11.1497
▁with	-11.1498
はら	-11.1498
出品	-11.1498
であることが	-11.1498
を書いた	-11.15
ウエスト	-11.1503
形式で	-11.1504
ストー	-11.1507
貫通	-11.1509
定める	-11.1509
の記事	-11.1511
車庫	-11.1511
近藤	-11.1511
含む	-11.1513
湿	-11.1517
人口約	-11.1519
学ぶ	-11.1523
両が	-11.1523
この頃	-11.1524
教科書	-11.1525
▁もともと	-11.1525
農家	-11.1526
親衛隊	-11.1526
大井	-11.1526
隊の	-11.1526
ザクセン	-11.1527
サーキット	-11.1528
学校法人	-11.1529
するとともに	-11.153
多様な	-11.153
っぱ	-11.1531
十字	-11.1533
外務省	-11.1533
ぴ	-11.1534
1954	-11.1534
福井県	-11.1534
秩序	-11.1534
ハリー	-11.1535
荷物	-11.1538
なって	-11.154
がなかった	-11.154
高崎	-11.1541
を目指した	-11.1541
認証	-11.1541
土木	-11.1542
をとり	-11.1542
倫理	-11.1544
玩具	-11.1545
序盤	-11.1547
開幕戦	-11.1548
▁com	-11.1549
動詞	-11.155
撮	-11.1551
支線	-11.1552
(2010	-11.1552
マウス	-11.1553
命中	-11.1553
の支持	-11.1553
蒲	-11.1554
独裁	-11.1555
コミ	-11.1556
最強	-11.1556
群の	-11.1556
セス	-11.1556
たものの	-11.1557
メジャーデビュー	-11.1557
推測	-11.1557
本店	-11.1558
用いられる	-11.1558
代々	-11.1559
釜	-11.1559
ef	-11.1561
謀	-11.1561
は不	-11.1563
することにより	-11.1564
win	-11.1565
大学文学部	-11.1569
をつける	-11.157
せよ	-11.1572
テレビ放送	-11.1575
立った	-11.1575
プレミアム	-11.1577
挙げ	-11.158
斜	-11.1581
ラマ	-11.1581
はないが	-11.1582
天文台	-11.1583
行っていた	-11.1583
結ばれ	-11.1585
-16	-11.1585
があって	-11.1585
、1949	-11.1587
年後	-11.1587
特典	-11.159
の水	-11.1591
ッキ	-11.1591
連合会	-11.1595
計画は	-11.1595
上は	-11.1595
ストレート	-11.1599
叙	-11.1599
▁1933	-11.1602
国際連合	-11.1604
log	-11.1608
_3	-11.161
形式の	-11.161
2.0	-11.1611
こちらは	-11.1611
クラーク	-11.1613
▁それでも	-11.1613
詰	-11.1615
ブス	-11.1616
出され	-11.1616
貨	-11.1617
ドック	-11.1617
大変	-11.1619
ity	-11.162
町に	-11.1621
首長	-11.1622
腫	-11.1624
グローバル	-11.1625
1915	-11.1625
▁as	-11.1625
代表作	-11.1626
を与えられ	-11.1626
往	-11.1628
世界的に	-11.163
に転向	-11.1632
ってしまう	-11.1632
語源	-11.1635
1873	-11.1637
支払	-11.164
gl	-11.164
直通	-11.164
直前の	-11.1641
総額	-11.1642
用水	-11.1642
du	-11.1642
ken	-11.1643
崩れ	-11.1643
咲	-11.1644
タカ	-11.1644
発信	-11.1645
行使	-11.1645
sy	-11.1646
切断	-11.1646
オラ	-11.1646
を取った	-11.1647
銀座	-11.165
エッ	-11.1651
線で	-11.1652
勢い	-11.1652
鹿島	-11.1654
▁→	-11.1654
干渉	-11.1655
トリア	-11.1655
led	-11.1655
サウ	-11.1656
が開始され	-11.1657
に指定された	-11.1657
もその	-11.1657
貴重な	-11.1658
休日	-11.1658
たちを	-11.1659
メニュー	-11.166
母体	-11.166
fw	-11.166
システムの	-11.1661
グレート	-11.1662
赤色	-11.1662
どんな	-11.1663
視覚	-11.1664
オリンピックの	-11.1665
nc	-11.1666
ソビエト	-11.1668
イロ	-11.1669
胃	-11.167
日本の元	-11.1671
併設	-11.1673
臭	-11.1673
撮影所	-11.1673
メートルの	-11.1673
川沿い	-11.1673
▁天	-11.1676
撃墜	-11.1676
坂本	-11.1676
スン	-11.1682
内は	-11.1683
いう	-11.1683
赤字	-11.1684
王妃	-11.1685
笹	-11.1685
摂取	-11.1685
大会の	-11.1688
公募	-11.1691
警察官	-11.1691
オイ	-11.1692
文学部	-11.1693
起こった	-11.1693
バルブ	-11.1693
バット	-11.1694
の公式	-11.1695
みられる	-11.1695
付いた	-11.1695
のなかで	-11.1696
るようになり	-11.1696
シロ	-11.1696
粗	-11.1696
謎の	-11.17
に移った	-11.17
歴史家	-11.1701
送られた	-11.1704
訪	-11.1705
まつり	-11.1706
理由として	-11.1709
救済	-11.1709
会合	-11.1709
沿い	-11.1709
すみ	-11.1709
仮説	-11.1709
面に	-11.171
最中	-11.1711
機を	-11.1711
1600	-11.1711
活性	-11.1716
ァ	-11.1717
1953	-11.1717
機材	-11.1719
内蔵	-11.1721
の紹介	-11.1721
浄	-11.1721
決戦	-11.1722
1872	-11.1722
法を	-11.1722
らん	-11.1723
ence	-11.1723
それ以降	-11.1725
1884	-11.1727
朝鮮半島	-11.1728
阿部	-11.1729
ヲ	-11.1729
矛盾	-11.1732
参加した	-11.1734
津波	-11.1734
チャンピオンシップ	-11.1735
をもたらした	-11.1736
は中華人民共和国	-11.1736
イニング	-11.1737
の意見	-11.1738
山中	-11.1738
世紀初頭	-11.1739
飛ば	-11.1739
ドラえもん	-11.174
方法は	-11.174
▁da	-11.1741
、1944	-11.1743
▁但し	-11.1744
生存	-11.1745
に変え	-11.1745
奴	-11.1746
、1930	-11.1748
会津	-11.1749
ram	-11.1753
に影響	-11.1754
mvp	-11.1754
敷地	-11.1755
曲は	-11.1756
▁ii	-11.1756
鉱物	-11.1756
サンダー	-11.1757
ンダ	-11.1757
ばかりの	-11.1757
あの	-11.1758
日本海軍	-11.1759
通じ	-11.1759
軍と	-11.1759
体操	-11.1759
を掲載	-11.1761
遅	-11.1762
返す	-11.1764
巧	-11.1764
シルバー	-11.1765
現役引退	-11.1765
入居	-11.1766
飲料	-11.1768
マリオ	-11.1769
笛	-11.1769
圭	-11.1771
機能を	-11.1771
理事会	-11.1772
を掛け	-11.1773
しやすい	-11.1777
▁ひろ	-11.178
毎月	-11.178
同地	-11.1783
報酬	-11.1783
同校	-11.1785
ウェン	-11.1785
らす	-11.1786
ベール	-11.1788
ホンダ	-11.1791
エウ	-11.1792
二人は	-11.1793
テラ	-11.1794
の人物	-11.1794
留め	-11.1794
ジア	-11.1795
1894	-11.1796
巡目	-11.1801
▁su	-11.1801
ハンター	-11.1801
光学	-11.1803
上場	-11.1804
係数	-11.1807
食用	-11.1809
発動	-11.181
不定期	-11.181
を制作	-11.1812
を作って	-11.1813
根本	-11.1813
前年の	-11.1813
と思う	-11.1815
1939	-11.1817
典型的な	-11.1817
交わ	-11.1819
過ごし	-11.1821
飯田	-11.1822
コンテナ	-11.1824
の文字	-11.1824
を採用し	-11.1827
、1959	-11.1827
遼	-11.1828
珍しく	-11.1829
、1958	-11.1829
の主要な	-11.183
釈	-11.183
源氏	-11.1832
されることになった	-11.1834
という設定	-11.1837
レンジャー	-11.1837
マルコ	-11.1838
言えば	-11.1838
建物は	-11.1838
落選	-11.1838
祀	-11.1838
前進	-11.1839
えば	-11.184
ロンドンの	-11.1841
宮崎県	-11.1844
降下	-11.1846
賃金	-11.1846
使える	-11.1848
所在	-11.1848
1907	-11.185
年頃から	-11.1853
を維持し	-11.1854
▁国際	-11.1856
代わり	-11.1858
のだが	-11.1859
コント	-11.1859
理由で	-11.1859
〜」	-11.186
ェ	-11.1861
а	-11.1863
幅広く	-11.1864
のではないか	-11.1866
奨励	-11.1869
の一部は	-11.187
存在した	-11.1871
鳥取	-11.1873
瀬戸	-11.1873
ニエ	-11.1873
open	-11.1874
の中心地	-11.1875
ラーメン	-11.1876
の拠点	-11.1877
ソンは	-11.1878
音響	-11.1878
を満たす	-11.1878
年夏	-11.188
エンジンの	-11.188
に行った	-11.188
をもたらす	-11.1881
\	-11.1882
生え	-11.1884
誰も	-11.1888
1957	-11.1889
排出	-11.1889
総選挙	-11.189
商標	-11.189
スケ	-11.1891
役職	-11.1892
後継者	-11.1893
ee	-11.1893
の一種である	-11.1894
分から	-11.1895
体を	-11.1896
メチル	-11.1896
▁1934	-11.1903
▁続く	-11.1903
ロボ	-11.1905
テック	-11.1906
今度は	-11.1907
キーボード	-11.1909
156	-11.1909
に改称	-11.1913
本作品	-11.1915
を形成し	-11.1917
さか	-11.1917
リッチ	-11.1917
ピアニスト	-11.1919
島根県	-11.192
ジュー	-11.192
8000	-11.1922
天下	-11.1923
ウィー	-11.1924
▁ch	-11.1925
町域	-11.1925
はフランス	-11.1926
還元	-11.1926
になってから	-11.1928
発足した	-11.1929
1908	-11.193
種別	-11.1931
を広げ	-11.1932
いけ	-11.1933
象徴	-11.1936
隠し	-11.1936
シニア	-11.1936
動機	-11.1939
の王	-11.1939
渓谷	-11.1941
ハルト	-11.1941
td	-11.1942
はアメリカ合衆国	-11.1942
懸	-11.1942
実戦	-11.1943
番組である	-11.1943
の武将	-11.1946
等に	-11.1946
着工	-11.1947
社会党	-11.1949
スキル	-11.195
ワース	-11.1951
爵位	-11.1952
日産	-11.1952
tc	-11.1953
ができ	-11.1954
は無	-11.1955
萩	-11.1959
としており	-11.1959
高知県	-11.196
▁その一方で	-11.1963
▁発売元は	-11.1964
相対	-11.1965
親子	-11.1965
の養子	-11.1967
サウンドトラック	-11.1967
トンの	-11.1967
ふじ	-11.1967
6000	-11.1968
を介して	-11.1969
車で	-11.1969
億ドル	-11.197
ライオン	-11.197
旗艦	-11.1971
に生息する	-11.1972
主催の	-11.1972
ベス	-11.1973
終了し	-11.1975
名詞	-11.1976
データを	-11.1976
▁近年	-11.1979
の裏	-11.1981
支社	-11.1983
▁この場合	-11.1985
▁vi	-11.1986
▁1932	-11.1986
たとえば	-11.1987
年後に	-11.1987
出てくる	-11.1988
山陽	-11.1988
の中の	-11.1991
畳	-11.1992
国際的な	-11.1995
1893	-11.1995
はドイツ	-11.1996
オレ	-11.1997
潜水	-11.1997
わせ	-11.1998
写本	-11.1998
カレ	-11.1998
鳥類	-11.1999
▁花	-11.2001
本来は	-11.2002
sch	-11.2002
発売されている	-11.2003
子を	-11.2003
の写真	-11.2004
初勝利	-11.2004
ミール	-11.2004
プラザ	-11.2004
頻度	-11.2005
以内に	-11.2005
かね	-11.2008
ゴス	-11.2009
見て	-11.201
というのは	-11.2011
が得られる	-11.2012
度に	-11.2014
スプ	-11.2016
に初めて	-11.2017
と称される	-11.2017
の製作	-11.2018
やその	-11.2018
成立した	-11.2019
カワ	-11.202
独自に	-11.2021
ance	-11.2023
残存	-11.2023
出身のサッカー選手	-11.2028
1951	-11.203
ツォ	-11.203
に残る	-11.2033
階に	-11.2034
ヴォル	-11.2034
さら	-11.2035
地域は	-11.2036
オロ	-11.2036
期間中	-11.2037
頭の	-11.2039
に巻き込まれ	-11.2039
ストア	-11.204
年の国勢調査	-11.2041
収録されている	-11.2041
欠場	-11.2041
を築いた	-11.2041
チームメイト	-11.2041
1885	-11.2043
中佐	-11.2045
スポ	-11.2048
十分に	-11.2048
ましい	-11.2051
鋭	-11.2052
キット	-11.2053
彫	-11.2053
ata	-11.2054
師匠	-11.2056
同級生	-11.2056
の指導者	-11.2056
知られている	-11.2061
ギュ	-11.2061
フォート	-11.2062
充	-11.2062
指令	-11.2063
news	-11.2063
成績は	-11.2064
の保護	-11.2065
中華	-11.2067
▁趣味は	-11.2067
に復帰	-11.2067
がなされ	-11.2069
の起源	-11.207
佐野	-11.2072
の組み合わせ	-11.2072
することによって	-11.2074
pre	-11.2074
フェイ	-11.2074
▁サン	-11.2075
研究科	-11.2075
を設け	-11.2075
を追い	-11.2076
に乗って	-11.2077
真実	-11.2077
描かれ	-11.2078
広島市	-11.208
キャン	-11.208
の中間	-11.2081
されてしまう	-11.2081
馬力	-11.2083
運搬	-11.2084
地域では	-11.2084
閉じ	-11.2085
の象徴	-11.2085
アルゴリズム	-11.2085
ことはできない	-11.2087
仮想	-11.2087
ダンサー	-11.2088
、1955	-11.2089
に建設された	-11.209
毛利	-11.209
表明	-11.2091
開始された	-11.2091
をそのまま	-11.2092
★	-11.2092
といわれ	-11.2092
乗務員	-11.2092
ことなく	-11.2094
日立	-11.2096
働いた	-11.2097
定理	-11.2097
の命令	-11.2097
年代前半	-11.2098
届け	-11.21
整数	-11.2102
が認められ	-11.2103
の境界	-11.2103
エレベーター	-11.2104
、1940	-11.2106
進展	-11.2107
マジック	-11.2108
農地	-11.2109
周囲に	-11.211
符号	-11.2111
確	-11.2111
を意味し	-11.2111
バスの	-11.2112
rp	-11.2112
一気に	-11.2113
ite	-11.2113
見直し	-11.2114
▁du	-11.2114
▁car	-11.2116
陶	-11.2118
の旧	-11.2119
チェス	-11.212
斑	-11.2121
神学	-11.2121
告白	-11.2121
ライナー	-11.2123
こともあって	-11.2124
審査員	-11.2124
訪れた	-11.2126
で行う	-11.2127
主権	-11.2128
1886	-11.2131
産地	-11.2132
條	-11.2133
私の	-11.2133
アダム	-11.2135
発行された	-11.2135
が低い	-11.2136
に迎え	-11.2136
南北に	-11.2138
ler	-11.2138
線の駅	-11.214
保全	-11.2141
ぎょう	-11.2144
4000	-11.2145
があること	-11.2146
蒸気	-11.2147
首都圏	-11.2147
下院	-11.2147
無視	-11.2149
湊	-11.2149
血液	-11.2152
組の	-11.2154
神社の	-11.2155
限りで	-11.2155
ヒン	-11.2156
隅	-11.2158
の一つとして	-11.2159
っち	-11.216
が決まった	-11.2161
ウラ	-11.2161
に復帰した	-11.2163
モンド	-11.2164
撤退した	-11.2164
エンタテインメント	-11.2164
想	-11.2164
を余儀なくされた	-11.2166
ウォル	-11.2166
名乗り	-11.2166
鍋	-11.2171
郷土	-11.2173
の演奏	-11.2173
軽量	-11.2173
微分	-11.2175
貨車	-11.2175
ブラッド	-11.2176
を決定した	-11.2176
合った	-11.2177
天神	-11.2179
航空会社	-11.218
るようになる	-11.218
に仕え	-11.2183
、1956	-11.2183
年間で	-11.2183
ことができない	-11.2184
の物語	-11.2186
シドニー	-11.2186
ネーム	-11.2187
はん	-11.2188
......	-11.2188
のあった	-11.2189
送られ	-11.219
市域	-11.2191
野生	-11.2192
勧告	-11.2193
引き上げ	-11.2194
▁京都	-11.2197
人であり	-11.2197
▁これに対し	-11.22
浸透	-11.2202
中央区	-11.2202
の著作	-11.2202
が行われていた	-11.2204
ロックバンド	-11.2205
現在まで	-11.2205
イカ	-11.2208
1888	-11.2208
金銭	-11.2208
加熱	-11.2209
を参照のこと	-11.2211
の共同	-11.2212
リーズ	-11.2212
映画祭	-11.2216
ies	-11.2216
なっていった	-11.2217
125	-11.2219
背番号	-11.222
立体	-11.2222
城に	-11.2222
倭	-11.2222
自動的に	-11.2223
委員会は	-11.2223
の主な	-11.2228
を通って	-11.223
youtube	-11.223
1891	-11.2233
pan	-11.2234
行なわれた	-11.2234
婦	-11.2235
暗号	-11.2235
ブドウ	-11.2236
順序	-11.2237
▁実際	-11.2239
理念	-11.224
ソウ	-11.2241
移動する	-11.2242
ブッシュ	-11.2242
○	-11.2242
境内	-11.2243
制服	-11.2243
そのため	-11.2246
およびその	-11.2251
を目的とした	-11.2251
災	-11.2251
斜面	-11.2251
zo	-11.2252
食べ	-11.2253
時点では	-11.2253
氏族	-11.2253
ウェア	-11.2253
▁そんな	-11.2255
アンリ	-11.2257
遅く	-11.2258
▁1935	-11.2258
採掘	-11.2262
を超えた	-11.2262
emi	-11.2263
旗本	-11.2263
県にある	-11.2265
に挑戦	-11.2265
定期的に	-11.2267
cle	-11.227
col	-11.227
メンバーの	-11.2272
セガ	-11.2273
婦人	-11.2273
厩舎	-11.2274
マレー	-11.2275
カルロス	-11.2276
免疫	-11.2276
自由民主党	-11.2278
高等学校卒業	-11.2278
あや	-11.2279
かさ	-11.2279
年間に	-11.2279
あげ	-11.228
それでも	-11.2281
棲	-11.2282
の道	-11.2282
坑	-11.2285
レアル	-11.2285
▁man	-11.2286
エビ	-11.2287
荒川	-11.2289
血管	-11.229
横綱	-11.2291
死ぬ	-11.2292
マネー	-11.2293
柴	-11.2294
どちらか	-11.2297
sen	-11.2298
貢	-11.2299
のではなく	-11.2301
▁system	-11.2302
ラト	-11.2303
一門	-11.2303
ビリー	-11.2303
なかなか	-11.2306
tra	-11.2306
国土	-11.2307
ure	-11.2308
ix	-11.2308
▁mar	-11.231
晃	-11.231
企業である	-11.2312
1887	-11.2312
っこ	-11.2313
に該当する	-11.2314
突入	-11.2314
pl	-11.2316
した結果	-11.2318
が決定した	-11.2318
1937	-11.2318
でなく	-11.2319
そもそも	-11.232
らしく	-11.232
軍用	-11.232
倒産	-11.232
連動	-11.2321
量が	-11.2321
運行されている	-11.2323
つい	-11.2324
批評家	-11.2325
を探	-11.2325
として活躍	-11.2325
の名で	-11.2327
鮮	-11.233
推移	-11.2331
ショック	-11.2333
宿泊	-11.2333
ji	-11.2333
アルメニア	-11.2334
姿を	-11.2335
クリスチャン	-11.2337
代表取締役	-11.2337
することもある	-11.2337
169	-11.234
出される	-11.2341
存在し	-11.2343
プレーヤー	-11.2343
どのような	-11.2345
らせる	-11.2345
以下に	-11.2345
、1952	-11.2345
事業を	-11.2346
▁これに対して	-11.2347
策定	-11.2347
追跡	-11.2348
ずっと	-11.2349
彗星	-11.235
補強	-11.235
ベースボール	-11.2353
イング	-11.2354
進め	-11.2354
平等	-11.2354
所得	-11.2355
回想	-11.2356
スターリン	-11.2356
システムは	-11.2356
架空の	-11.2356
記者会見	-11.2356
がよく	-11.2357
が主	-11.2357
裁判官	-11.2358
変わる	-11.2358
の撮影	-11.2359
寛政	-11.2359
十両	-11.2359
の構成	-11.2361
判明	-11.2362
改築	-11.2362
オールスター	-11.2362
除去	-11.2363
が可能な	-11.2365
鳥取県	-11.2365
inter	-11.2365
暖	-11.2366
レム	-11.2366
する際	-11.2368
上空	-11.2368
放送時間	-11.237
ガールズ	-11.237
早朝	-11.2372
点が	-11.2373
ker	-11.2374
黒田	-11.2374
挿入	-11.2376
かかり	-11.2376
川口	-11.2377
三丁目	-11.2378
靖	-11.2378
抜	-11.2379
bra	-11.2379
起動	-11.238
使用できる	-11.2381
に対しても	-11.2382
カントリー	-11.2383
あて	-11.2384
以内	-11.2385
メラ	-11.2385
誤解	-11.2386
の意向	-11.2386
場の	-11.2387
番艦	-11.2389
まとめ	-11.2389
前提	-11.2389
運転台	-11.2389
困難な	-11.2391
州刺史	-11.2391
ier	-11.2392
グッド	-11.2394
書いている	-11.2394
ニッ	-11.2396
レンタル	-11.2396
訪れ	-11.2397
リメイク	-11.2399
ヘリ	-11.2399
チャートで	-11.2399
終わる	-11.24
年代初頭	-11.24
工場で	-11.24
付いて	-11.2401
建てられた	-11.2401
に対応した	-11.2402
活動している	-11.2402
されていなかった	-11.2403
鑑賞	-11.2403
ゲームの	-11.2404
拾	-11.2405
と並んで	-11.2405
投球	-11.2407
ばし	-11.2407
を追加	-11.2407
設計された	-11.2409
出会った	-11.2411
製作した	-11.2412
皇族	-11.2414
工程	-11.2414
フランツ	-11.2414
エミ	-11.2414
を再	-11.2416
ドルフ	-11.2416
面では	-11.2416
マネジメント	-11.2417
家督	-11.2417
撃退	-11.2417
も可能	-11.2417
哲学者	-11.2418
リコ	-11.2418
ガメ	-11.242
工夫	-11.242
リティ	-11.2421
をマーク	-11.2423
専門家	-11.2425
実際は	-11.2426
曽	-11.2426
▁その際	-11.2426
棋士	-11.2427
英文	-11.2427
定住	-11.2428
相互作用	-11.2428
初頭	-11.2428
狩猟	-11.2429
最下位	-11.243
スパー	-11.2431
▁高校	-11.2431
越前	-11.2432
全体で	-11.2433
アイデア	-11.2434
メトロ	-11.2435
際の	-11.2435
プリン	-11.2435
事前に	-11.2437
を送った	-11.2437
聖堂	-11.2437
リース	-11.2438
の名称は	-11.2439
再興	-11.2441
点を	-11.2441
台詞	-11.2441
を示している	-11.2442
ダブルス	-11.2443
レジ	-11.2444
年生の	-11.2445
も含む	-11.2445
ブン	-11.2446
交際	-11.2446
会う	-11.2446
を進める	-11.2447
1869	-11.2447
ずれ	-11.2447
は無く	-11.2448
月号から	-11.245
として生まれる	-11.245
セックス	-11.2455
小田原	-11.2455
商業施設	-11.2456
乗降	-11.2456
史上初の	-11.2456
▁よし	-11.2457
気動車	-11.2459
1892	-11.246
失われた	-11.2461
を目指し	-11.2463
165	-11.2465
完成した	-11.2465
弾圧	-11.2466
アース	-11.2466
大山	-11.2469
2019	-11.2469
撃破	-11.2469
時間を	-11.2471
▁tour	-11.2471
付与	-11.2472
決定戦	-11.2473
標的	-11.2473
しておらず	-11.2474
全国の	-11.2474
出来ない	-11.2475
重視	-11.2475
シーズンには	-11.2482
船の	-11.2483
▁cd	-11.2484
数を	-11.2485
部位	-11.2486
明確な	-11.2486
の話	-11.2487
特徴的な	-11.2487
▁z	-11.2487
久保	-11.2487
撃沈	-11.2488
パイプ	-11.2489
ムハンマド	-11.249
面の	-11.2491
直轄	-11.2491
1916	-11.2493
利点	-11.2493
足を	-11.2493
食糧	-11.2494
ium	-11.2495
ティル	-11.2495
らせた	-11.2496
農場	-11.2496
が無く	-11.2496
づき	-11.2496
薄い	-11.2496
形に	-11.2496
回目	-11.2497
オリジナルの	-11.2497
の割合	-11.2497
さわ	-11.25
治安	-11.25
ハインリヒ	-11.25
ドッグ	-11.2504
1905	-11.2507
教徒	-11.2508
続けて	-11.2508
を執筆	-11.2509
切って	-11.251
ファイト	-11.251
日本での	-11.251
ぶつ	-11.2511
を付け	-11.2513
ano	-11.2514
全車	-11.2515
ぷ	-11.2517
くれ	-11.2517
所に	-11.2518
キャラクターの	-11.252
▁毎年	-11.2521
かけた	-11.2521
こん	-11.2521
シエ	-11.2521
時間の	-11.2521
高地	-11.2522
ゃ	-11.2522
姫路	-11.2524
ワード	-11.2524
ノア	-11.2524
療養	-11.2525
第五	-11.2525
、1946	-11.2527
佐賀県	-11.2527
ニカ	-11.2527
川と	-11.2529
他人	-11.253
1878	-11.253
招聘	-11.253
図書	-11.2533
が進み	-11.254
缶	-11.2541
ポルノ	-11.2541
長谷川	-11.2541
を考え	-11.2544
おらず	-11.2545
も含めて	-11.2546
最高裁判所	-11.2547
近隣の	-11.2547
▁通称	-11.2548
バカ	-11.255
無理	-11.2551
の男性	-11.2552
▁1927	-11.2552
▁1928	-11.2554
モチーフ	-11.2555
nfl	-11.2556
橋梁	-11.2557
の第一	-11.2557
車が	-11.2558
ser	-11.256
μ	-11.256
攻勢	-11.2561
見え	-11.2562
科学技術	-11.2564
ポリス	-11.2566
あさ	-11.2566
ヘー	-11.2566
彼らが	-11.2568
ste	-11.2569
は中国	-11.2569
鄭	-11.2569
ことなど	-11.257
上方	-11.257
プレゼント	-11.257
慎	-11.257
因子	-11.257
▁他	-11.257
小学	-11.2571
となるが	-11.2571
キリ	-11.2572
マリン	-11.2573
いか	-11.2573
元帥	-11.2573
、1954	-11.2574
を越えて	-11.2574
気温	-11.2575
マット	-11.2577
ものだ	-11.2577
までの間	-11.2577
の形状	-11.2577
を深め	-11.2578
作品として	-11.2579
といって	-11.258
進み	-11.2581
混同	-11.2581
に向けた	-11.2581
を見せる	-11.2584
集め	-11.2585
前後の	-11.2587
なぜ	-11.2588
でプレー	-11.2588
は特に	-11.2589
それほど	-11.2589
伝える	-11.2591
参議院	-11.2591
に戻って	-11.2591
は同年	-11.2592
寿命	-11.2592
の最	-11.2593
のファン	-11.2593
上がって	-11.2595
シングルス	-11.2596
国民の	-11.2596
akb	-11.2597
幼児	-11.2597
ley	-11.2598
番手	-11.2598
きり	-11.2598
そんな	-11.2599
サマー	-11.2599
チャンピオンズリーグ	-11.2603
存在していた	-11.2605
撤去	-11.2606
ないもの	-11.2606
人格	-11.2611
河口	-11.2612
レイク	-11.2612
1889	-11.2613
米ドル	-11.2613
で構成されている	-11.2613
▁lo	-11.2613
正常	-11.2615
入れ替え	-11.2616
ソール	-11.2617
で約	-11.2617
のみを	-11.2618
ポンプ	-11.2619
告知	-11.2619
わなかった	-11.262
青木	-11.262
ものではなく	-11.2621
強豪	-11.2621
補償	-11.2622
の名前は	-11.2622
身長	-11.2622
ディスプレイ	-11.2624
食い	-11.2624
同人	-11.2625
使用している	-11.2625
はかなり	-11.2625
甥	-11.2625
が発表され	-11.2625
ev	-11.2626
尽く	-11.2627
進軍	-11.2628
蒸気機関車	-11.2629
知らない	-11.2629
小型の	-11.263
有利	-11.263
央	-11.263
母の	-11.2631
という形で	-11.2631
タイムズ	-11.2631
実態	-11.2632
万人の	-11.2633
に大きく	-11.2634
エリック	-11.2634
の主張	-11.2635
おん	-11.2635
書いて	-11.2635
忠実	-11.2636
タウ	-11.2636
ヴィクトリア	-11.2638
アリー	-11.264
オートバイ	-11.264
1909	-11.2641
を担う	-11.2642
同月	-11.2643
沈没	-11.2643
内での	-11.2644
パンチ	-11.2644
用地	-11.2646
のモデル	-11.2646
サリ	-11.2647
作られる	-11.2647
を残している	-11.265
乗組員	-11.2651
東京府	-11.2653
の準備	-11.2654
くろ	-11.2654
予定だったが	-11.2654
差異	-11.2654
燃	-11.2656
コイ	-11.2657
欠点	-11.2658
ari	-11.2659
写像	-11.266
発症	-11.2661
モジュール	-11.2662
していて	-11.2662
メロディ	-11.2665
フロリダ	-11.2665
の最高	-11.2668
管制	-11.2668
▁原作	-11.2668
俣	-11.2672
解任	-11.2672
国民党	-11.2674
カレー	-11.2674
軌	-11.2676
シナ	-11.2677
閉店	-11.2677
スティック	-11.2677
題名	-11.2679
ことがあった	-11.268
も参照	-11.268
▁1929	-11.2681
センチメートル	-11.2681
砕	-11.2681
邸宅	-11.2683
パンク	-11.2683
アーム	-11.2685
初当選	-11.2685
明るい	-11.2685
を実施した	-11.2686
見られた	-11.2687
しげ	-11.2689
異動	-11.2689
台地	-11.269
議会議員	-11.2691
ミッド	-11.2691
]]	-11.2691
兼任	-11.2694
ネコ	-11.2694
量子	-11.2694
バージニア州	-11.2695
慶應義塾大学	-11.2695
に留学	-11.2696
外野手	-11.2697
▁1931	-11.2698
察	-11.2698
ベッ	-11.2699
描かれる	-11.27
隊は	-11.2702
今日の	-11.2703
武帝	-11.2704
有数の	-11.2704
宇宙船	-11.2705
作の	-11.271
春の	-11.271
耕	-11.271
司祭	-11.2711
jst	-11.2713
参加し	-11.2713
年秋	-11.2714
育ち	-11.2714
時代劇	-11.2714
三条	-11.2716
どれ	-11.2717
コレ	-11.2717
積分	-11.2718
殺害された	-11.2721
埋葬	-11.2722
ザール	-11.2722
オイル	-11.2723
どちら	-11.2723
再開発	-11.2723
出入口	-11.2725
滑走路	-11.2725
肢	-11.2726
linux	-11.2726
に収録	-11.2727
数え	-11.2727
各国の	-11.2728
二度	-11.2728
はそのまま	-11.273
やく	-11.273
貸	-11.2733
はならなかった	-11.2733
安定した	-11.2733
開校	-11.2733
死の	-11.2734
切られ	-11.2735
本当に	-11.2735
に編入された	-11.2737
起工	-11.2739
大久保	-11.2742
書く	-11.2742
目撃	-11.2744
利用される	-11.2745
シュタット	-11.2748
へい	-11.2748
ローラ	-11.2749
の弟子	-11.275
の役割	-11.2751
海水	-11.2752
松田	-11.2753
津軽	-11.2753
っていたが	-11.2753
自国	-11.2755
和平	-11.2755
エキ	-11.2756
ことができなかった	-11.2757
ごとの	-11.2757
法は	-11.2761
人として	-11.2761
に就任する	-11.2763
をつけた	-11.2764
▁もっとも	-11.2766
苗	-11.2766
ドコモ	-11.2767
番号は	-11.2768
ここから	-11.2768
開通した	-11.2768
▁ほか	-11.277
に直接	-11.277
修士	-11.277
▁1924	-11.2771
と表記	-11.2772
閣僚	-11.2772
に変更した	-11.2772
今作	-11.2773
箱根	-11.2775
掲載されている	-11.2775
方は	-11.2777
ウォール	-11.2778
バイト	-11.2778
、1943	-11.2779
ib	-11.2779
させられた	-11.2779
cha	-11.2782
世紀には	-11.2782
夜の	-11.2784
の妹	-11.2784
ブレイク	-11.2784
壮	-11.2785
教団	-11.2787
1906	-11.2787
伊東	-11.2788
まって	-11.2788
入った	-11.2788
窓口	-11.2788
サンド	-11.279
路線は	-11.279
町名	-11.2791
rna	-11.2792
を巡って	-11.2792
国土交通省	-11.2794
潰	-11.2794
しかも	-11.2795
擁護	-11.2796
も含め	-11.2797
ベンチ	-11.2801
1938	-11.2802
リンカーン	-11.2803
部隊が	-11.2804
á	-11.2805
▁上記の	-11.2805
セキュリティ	-11.2807
▁慶長	-11.2808
っか	-11.281
バース	-11.281
葛	-11.281
スピン	-11.281
パロディ	-11.2811
キシ	-11.2812
芸名	-11.2813
グラー	-11.2813
が開催された	-11.2815
制作の	-11.2815
▁その他の	-11.2817
彼女が	-11.2817
浸	-11.2817
衡	-11.2819
標識	-11.282
の顔	-11.2821
犠牲者	-11.2824
ナレーション	-11.2825
ディーゼル	-11.2826
0.1	-11.2827
アプローチ	-11.2827
star	-11.2827
日午前	-11.2828
を皮切りに	-11.2829
プロレスラー	-11.283
小島	-11.283
酔	-11.2832
の一つで	-11.2832
顎	-11.2833
が残る	-11.2833
フェルト	-11.2834
同行	-11.2834
爪	-11.2835
過ごす	-11.2835
北上	-11.2835
つとめ	-11.2837
ッシング	-11.2838
寄贈	-11.2843
サード	-11.2843
みち	-11.2844
捉え	-11.2844
が成立する	-11.2845
マケドニア	-11.2845
作動	-11.2846
pop	-11.2847
あって	-11.2847
事務局	-11.2847
停車する	-11.2848
アナウンス	-11.2849
達の	-11.285
熱帯	-11.285
マック	-11.2853
▁尚	-11.2854
ek	-11.2854
チケット	-11.2854
ホット	-11.2855
難民	-11.2855
can	-11.2856
1860	-11.2858
朝日新聞	-11.2859
ッキー	-11.286
区間は	-11.2861
カロ	-11.2861
リスナー	-11.2863
カート	-11.2866
new	-11.2867
mat	-11.2868
放射線	-11.2868
twitter	-11.2869
砲弾	-11.2869
探索	-11.287
誓	-11.2872
戦った	-11.2872
▁ver	-11.2872
フード	-11.2874
ちょうど	-11.2875
一日	-11.2875
の街	-11.2875
メンバーは	-11.2876
馬の	-11.2876
1936	-11.2878
住吉	-11.2878
呼ばれ	-11.2879
引き継がれ	-11.2881
を結び	-11.2881
必須	-11.2884
徳川家康	-11.2884
西暦	-11.2885
を設置し	-11.2885
デバイス	-11.2885
日本一	-11.2886
を受けていた	-11.2889
クリー	-11.289
円形	-11.289
二十	-11.289
の多く	-11.2892
福山	-11.2892
に収録されている	-11.2893
敦	-11.2893
事前	-11.2895
尼	-11.2897
上院議員	-11.2898
助言	-11.2898
▁この時期	-11.2899
中盤	-11.29
救急	-11.2901
ピッチ	-11.2902
本作では	-11.2902
鱗	-11.2902
に当たって	-11.2903
日本海	-11.2905
月中旬	-11.2905
、1957	-11.2906
深刻な	-11.2906
世間	-11.2906
を問わず	-11.2907
簡	-11.2907
略奪	-11.2908
がなされている	-11.2909
千代	-11.2909
意志	-11.291
おこ	-11.2911
共産主義	-11.2912
ときには	-11.2912
悲劇	-11.2913
用品	-11.2914
はすでに	-11.2914
父親の	-11.2914
高温	-11.2915
隣の	-11.2917
日程	-11.2918
率が	-11.2918
帆	-11.2919
小規模な	-11.2922
することも	-11.2922
google	-11.2922
の独立	-11.2922
伝道	-11.2923
環状	-11.2923
雀	-11.2924
指数	-11.2925
鉄道が	-11.2925
の理論	-11.2927
その結果	-11.2927
新興	-11.2927
バク	-11.2928
月曜	-11.293
継いで	-11.2931
101	-11.2932
右側	-11.2932
週末	-11.2933
ーレ	-11.2936
アキ	-11.2936
交付	-11.2938
▁最終的に	-11.2939
勝利した	-11.2939
車輪	-11.2939
ことがあり	-11.294
、1951	-11.294
開き	-11.2942
したとき	-11.2943
ムーン	-11.2943
の時点で	-11.2943
したもので	-11.2943
露出	-11.2944
警視庁	-11.2945
リーガ	-11.2946
自由党	-11.2947
水泳	-11.2948
を発見し	-11.2949
」("	-11.2949
松井	-11.2949
が設立され	-11.2949
cho	-11.295
あれ	-11.2952
高木	-11.2956
定められ	-11.2957
を探し	-11.2959
が続く	-11.296
人組	-11.2963
破壊された	-11.2963
ということで	-11.2965
を有している	-11.2965
一行	-11.2968
を舞台に	-11.2969
バスク	-11.2969
基の	-11.2969
音楽の	-11.2971
▁当時は	-11.2971
動脈	-11.2972
を走る	-11.2973
と思い	-11.2974
体力	-11.2974
川水系	-11.2975
されることもある	-11.2975
スペ	-11.2977
ガム	-11.2977
、1942	-11.2978
全国大会	-11.298
に出走	-11.298
が含まれている	-11.2981
qu	-11.2981
に移行	-11.2982
の無い	-11.2983
で放送	-11.2983
嫌い	-11.2983
から成る	-11.2984
が現れる	-11.2985
の命	-11.2986
世話	-11.2986
アフガニスタン	-11.2986
ストック	-11.2986
と見られる	-11.2988
、1941	-11.2988
qua	-11.299
幾つかの	-11.2992
ジェリー	-11.2993
ドメイン	-11.2993
動く	-11.2993
を卒業後	-11.2994
比率	-11.2995
を認める	-11.2996
投下	-11.2996
パシフィック	-11.2996
、1953	-11.2998
▁my	-11.2998
艦船	-11.2999
コイン	-11.2999
を名乗る	-11.3
ウィルソン	-11.3001
出産	-11.3001
の大部分	-11.3003
務める	-11.3003
パーティ	-11.3003
アルミ	-11.3004
オランダの	-11.3005
中日	-11.3008
オリコン	-11.301
さらなる	-11.3011
土器	-11.3011
結果は	-11.3013
通常盤	-11.3014
の名は	-11.3014
は何	-11.3016
筋肉	-11.3016
英語の	-11.3017
建造された	-11.3019
今回	-11.302
出身の元プロ野球選手	-11.302
短期大学	-11.302
得た	-11.3021
運び	-11.3023
家屋	-11.3025
ボランティア	-11.3025
シベリア	-11.3025
政界	-11.3026
されることとなった	-11.3026
多少	-11.3026
窪	-11.3027
グロー	-11.3027
とみなされ	-11.3028
洪	-11.303
無人	-11.303
をいう	-11.303
手続	-11.303
歩道	-11.3032
防災	-11.3032
同市	-11.3032
危険性	-11.3033
が流れ	-11.3034
年度から	-11.3035
の総称	-11.3035
トップチーム	-11.3037
▁he	-11.3037
ない限り	-11.3037
を対象に	-11.3039
og	-11.304
拳銃	-11.3041
codice	-11.3041
稚	-11.3042
洞窟	-11.3042
マニア	-11.3043
sr	-11.3043
ボーイング	-11.3043
所で	-11.3046
1876	-11.3046
会見	-11.3046
千人	-11.3046
▁第一次世界大戦	-11.3049
直ちに	-11.3049
と共演	-11.305
責	-11.3051
が発見された	-11.3051
位相	-11.3052
京王	-11.3053
父が	-11.3054
斬	-11.3054
後者は	-11.3054
▁1925	-11.3054
多くは	-11.3057
飛行隊	-11.3058
選ばれ	-11.3058
も務めた	-11.3058
マンチェスター	-11.3058
ブルック	-11.306
ロット	-11.3061
イギリス海軍	-11.3061
販売する	-11.3063
▁これによって	-11.3065
ā	-11.3066
最終戦	-11.3066
155	-11.3066
現存	-11.3068
ダメージ	-11.3068
直し	-11.3071
を防ぐため	-11.3071
の分野で	-11.3072
書簡	-11.3072
獲得した	-11.3072
を高める	-11.3073
牝馬	-11.3073
繋	-11.3073
キエフ	-11.3073
派遣された	-11.3075
東アジア	-11.3076
菊池	-11.3078
邑	-11.3078
審議会	-11.3078
作中	-11.308
ゴリ	-11.3081
備え	-11.3082
ソース	-11.3082
奪	-11.3083
賛	-11.3085
チームを	-11.3086
魔女	-11.3086
えて	-11.3088
に選ばれ	-11.3089
崖	-11.3089
az	-11.3089
受け入れられ	-11.309
の管轄	-11.3091
の例	-11.3091
文法	-11.3093
哀	-11.3093
色彩	-11.3095
客室	-11.3095
綴	-11.3096
▁それから	-11.3097
道徳	-11.3097
枚目の	-11.31
太鼓	-11.3101
ベック	-11.3101
が同じ	-11.3102
を連れて	-11.3102
てつ	-11.3103
与党	-11.3106
の強化	-11.3107
孤立	-11.3108
決意	-11.3109
メリット	-11.311
大統領選挙	-11.3113
マイナー	-11.3115
構内	-11.3115
住友	-11.3115
然と	-11.3118
▁inc	-11.3118
を避けるため	-11.3119
dia	-11.3119
で活躍した	-11.312
渡す	-11.312
肌	-11.3122
ウルフ	-11.3123
ハードウェア	-11.3124
奪三振	-11.3126
以降に	-11.3126
を食べる	-11.3126
ゆえに	-11.3127
マルク	-11.3127
麺	-11.3127
じゅん	-11.3127
グレン	-11.3128
元禄	-11.3131
一貫して	-11.3132
▁ta	-11.3133
統括	-11.3134
mbs	-11.3136
に接する	-11.3137
内外	-11.3138
を与えられた	-11.3139
部門で	-11.3139
などにも	-11.3141
帰国した	-11.3141
を表明	-11.3142
入門	-11.3142
の政治	-11.3144
リヒ	-11.3145
症候群	-11.3146
じま	-11.3149
各地に	-11.315
ting	-11.3153
揚げ	-11.3153
1800	-11.3154
だけである	-11.3155
者と	-11.3156
の協力	-11.3158
love	-11.316
1882	-11.3161
ml	-11.3162
緊張	-11.3162
クハ	-11.3162
ネク	-11.3163
されたこと	-11.3165
1.0	-11.3165
チェル	-11.3168
るよう	-11.3169
が立ち	-11.3171
集英社	-11.3172
の友人	-11.3174
設立され	-11.3174
副会長	-11.3175
とく	-11.3175
実証	-11.3176
大学校	-11.3176
が生じた	-11.3176
割合	-11.3176
を相手に	-11.3177
アーズ	-11.3179
販売された	-11.3179
書を	-11.3179
黙	-11.318
祖先	-11.3181
アイス	-11.3183
灘	-11.3184
デッキ	-11.3188
本人は	-11.3188
告発	-11.3188
は完全に	-11.3189
抽選	-11.3189
進水	-11.319
おうと	-11.3192
放送の	-11.3192
駿	-11.3193
の呼称	-11.3196
が放送された	-11.3196
チェロ	-11.3197
剥	-11.3198
リッジ	-11.3198
利用する	-11.3199
フン	-11.3199
名鉄	-11.3201
心を	-11.3201
の減少	-11.3202
安全性	-11.3202
任意	-11.3202
不在	-11.3203
ワイルド	-11.3207
トリック	-11.3207
信頼性	-11.3208
がおり	-11.3209
彰	-11.321
ことにした	-11.321
▁1923	-11.3213
イタリア語	-11.3214
暁	-11.3215
大幅な	-11.3217
調節	-11.3218
アミ	-11.3218
忌	-11.3218
ダール	-11.3219
の字	-11.3219
▁mm	-11.3219
復旧	-11.322
望遠鏡	-11.322
▁at	-11.3221
ひとつの	-11.3222
世代の	-11.3222
の兄	-11.3222
知らせ	-11.3224
[[	-11.3224
が設立された	-11.3226
の影響を受け	-11.3227
の上で	-11.3228
規	-11.3228
わせる	-11.3228
現職	-11.3232
の出演	-11.3232
シーズンに	-11.3232
景気	-11.3233
測量	-11.3233
gb	-11.3233
予告	-11.3234
間違い	-11.3235
van	-11.3236
小規模	-11.3236
クラン	-11.3237
書房	-11.3238
貧困	-11.3239
囲碁	-11.3239
造船	-11.3239
年ごろ	-11.3241
アルプス	-11.3243
覧	-11.3243
変遷	-11.3243
氷河	-11.3244
ロッ	-11.3244
考古学	-11.3244
の大きな	-11.3244
dt	-11.3245
を伝える	-11.3245
かなりの	-11.3246
に用いる	-11.3246
と信じ	-11.3248
ks	-11.3249
▁江戸時代	-11.325
を搭載する	-11.325
正室	-11.325
ラール	-11.3253
情報番組	-11.3255
わけではなく	-11.3256
fs	-11.3256
飼	-11.3256
ほとんどが	-11.3259
合体	-11.326
寛永	-11.3262
ことはなかった	-11.3262
ニル	-11.3263
入り口	-11.3263
に代わり	-11.3264
左側	-11.3267
1864	-11.3268
宜	-11.3268
迎え	-11.3268
公的	-11.3268
川を	-11.327
何度か	-11.3271
との戦い	-11.3271
▁初期の	-11.3272
急遽	-11.3272
となったため	-11.3272
本数	-11.3273
0%	-11.3274
可決	-11.3274
をあげた	-11.3275
輩出	-11.3276
近郊の	-11.3277
の最後の	-11.3277
を開設	-11.3277
州内	-11.3279
アレクサンドル	-11.3279
1879	-11.328
ive	-11.3281
ルカ	-11.3281
把握	-11.3283
をかけた	-11.3285
トロント	-11.3286
かかって	-11.3286
に任じられ	-11.3288
長に就任	-11.3288
▁fa	-11.3289
は旧	-11.329
醸造	-11.329
この番組	-11.3291
を失う	-11.3291
逮捕され	-11.3291
狩り	-11.3291
食堂	-11.3294
会議で	-11.3295
制作した	-11.3296
設定された	-11.3296
を越える	-11.3296
存在している	-11.3297
エクスプレス	-11.3299
意思	-11.3299
ホイ	-11.3299
臼	-11.33
ö	-11.33
演じる	-11.3301
主流	-11.3302
光の	-11.3302
惨	-11.3303
の前で	-11.3303
ダート	-11.3303
ノキ	-11.3306
侵害	-11.3307
over	-11.3307
開け	-11.3308
豊富な	-11.3308
笑い	-11.3308
リン酸	-11.3309
掘	-11.3309
側近	-11.331
容易	-11.331
務めた	-11.3311
つつも	-11.3313
同型	-11.3313
シェー	-11.3314
関係は	-11.3314
史跡	-11.3317
1.2	-11.3318
付きの	-11.3319
アーチ	-11.332
植物の	-11.332
年次	-11.3322
なみ	-11.3323
に任じられた	-11.3325
御所	-11.3325
おおむね	-11.3326
青い	-11.3326
符	-11.3326
代謝	-11.3327
あお	-11.3329
パキスタン	-11.333
cre	-11.333
ことができず	-11.3331
blue	-11.3332
と称した	-11.3333
佐世保	-11.3335
ケア	-11.3336
減少した	-11.3337
テイラー	-11.3337
セールス	-11.3339
割引	-11.334
劇中	-11.334
に見	-11.3341
背中	-11.3342
オフに	-11.3343
援軍	-11.3343
oo	-11.3344
ゲスト出演	-11.3344
試合は	-11.3344
にある公立小学校	-11.3347
を全て	-11.3348
嫡男	-11.3349
さく	-11.3351
▁初	-11.3352
半径	-11.3353
コラム	-11.3353
und	-11.3353
100%	-11.3354
に際し	-11.3354
cia	-11.3355
高麗	-11.3356
交響曲	-11.3357
動物の	-11.3357
もはや	-11.3358
杜	-11.336
方式の	-11.3364
特有の	-11.3364
人も	-11.3365
重い	-11.3366
改札口	-11.3367
後輩	-11.337
ボリ	-11.3371
ファーム	-11.3372
プト	-11.3373
が設けられている	-11.3373
しまった	-11.3374
体は	-11.3376
民営化	-11.3379
ッグ	-11.338
首脳	-11.3381
日本政府	-11.3384
東区	-11.3384
お互い	-11.3384
騎士団	-11.3384
残っていた	-11.3385
ハナ	-11.3386
▁本項では	-11.3387
人の基礎自治体	-11.3387
郡山	-11.3387
が登場し	-11.3389
ランダム	-11.339
ニョ	-11.339
共和国の	-11.3391
骨折	-11.3391
列車の	-11.3392
を建て	-11.3392
本作は	-11.3392
hr	-11.3392
1881	-11.3393
いずれの	-11.3393
それらは	-11.3394
致	-11.3394
系図	-11.3399
介護	-11.3399
憂	-11.34
三人	-11.3401
やってきた	-11.3401
渋滞	-11.3402
問題が	-11.3402
播磨	-11.3404
破産	-11.3404
1874	-11.3405
に置かれた	-11.3407
べる	-11.3407
構	-11.3408
宇治	-11.3408
階層	-11.3409
▁東京都	-11.3411
駅名	-11.3411
ない場合	-11.3412
昨	-11.3412
死に	-11.3413
▁サ	-11.3414
明石	-11.3415
テクノロジー	-11.3416
最長	-11.3416
行なわれ	-11.342
女性が	-11.3421
遇	-11.3424
分野で	-11.3424
を聞き	-11.3424
を上回る	-11.3425
学区	-11.3426
ジョージア	-11.3427
アントニオ	-11.3427
など様々な	-11.3427
ヶ谷	-11.3427
計測	-11.3427
ラート	-11.3428
旭川	-11.3429
▁vol	-11.3429
マウント	-11.3429
長は	-11.343
生産された	-11.3431
両側	-11.3431
ショッピングセンター	-11.3433
開店	-11.3434
神々	-11.3436
容器	-11.3436
スタートした	-11.3436
叩き	-11.3436
に触れ	-11.3437
中国人	-11.3437
恐竜	-11.3437
けた	-11.3437
に指定され	-11.3438
謝	-11.344
年末に	-11.3442
断層	-11.3442
ナトリウム	-11.3442
コーラス	-11.3443
紙幣	-11.3443
を取って	-11.3448
と呼んだ	-11.3449
じる	-11.345
ところに	-11.3451
絵本	-11.3451
反論	-11.3452
毎日放送	-11.3452
とみられる	-11.3453
の曲	-11.3453
発見した	-11.3454
▁1918	-11.3454
アント	-11.3454
の人口	-11.3455
であったこと	-11.3455
うら	-11.3457
▁続いて	-11.3459
スタンダード	-11.346
生まれの	-11.346
ことが多かった	-11.3462
一等	-11.3462
学的	-11.3463
産物	-11.3463
現れた	-11.3464
半年	-11.3464
売買	-11.3464
線型	-11.3464
娘の	-11.3467
設置され	-11.3467
一貫	-11.3467
区にある	-11.3468
コミューン	-11.3469
として生まれた	-11.3469
以	-11.347
167	-11.3472
ピース	-11.3474
遺構	-11.3475
現れる	-11.3476
られず	-11.3477
数少ない	-11.348
競輪	-11.3481
▁元々は	-11.3481
の表記	-11.3482
所管	-11.3483
グッズ	-11.3483
認められた	-11.3484
原稿	-11.3484
手前	-11.3485
豚	-11.3485
に見える	-11.3486
所領	-11.3488
パール	-11.3488
朝鮮人	-11.3491
復讐	-11.3492
アニメ版	-11.3493
に任命され	-11.3494
サンデー	-11.3495
ミズ	-11.3495
化されている	-11.3495
釈放	-11.3496
ホッ	-11.3496
に収め	-11.3497
生じた	-11.3498
収容所	-11.3499
作成した	-11.3499
進んだ	-11.3501
内務省	-11.3501
外交官	-11.3502
が与えられ	-11.3502
試合を	-11.3503
共通の	-11.3504
利用可能	-11.3505
た場合	-11.3505
手の	-11.3506
優秀な	-11.3507
デール	-11.3508
▁中世	-11.3509
解散した	-11.351
を巡る	-11.3511
開設された	-11.3511
ara	-11.3516
隈	-11.3517
利用されている	-11.3518
考えられる	-11.3519
1862	-11.352
年前に	-11.3521
連敗	-11.3521
安芸	-11.3522
作目の	-11.3522
作る	-11.3522
mit	-11.3524
▁清	-11.3524
ミドル	-11.3524
を覚え	-11.3524
プロ入り	-11.3524
全世界	-11.3526
に備え	-11.3527
dream	-11.3527
▁通称は	-11.3529
に恵まれ	-11.3529
gr	-11.353
▁両	-11.3531
ハンドル	-11.3534
たちと	-11.3535
小笠原	-11.3536
アトランタ	-11.3537
と考えていた	-11.3537
が廃止され	-11.3537
高度な	-11.3538
ニューヨークの	-11.3539
キャップ	-11.3539
付けられ	-11.3539
「"	-11.354
方を	-11.3542
出現する	-11.3542
アポロ	-11.3543
1933	-11.3543
が一般的	-11.3543
添え	-11.3544
科学的	-11.3544
light	-11.3545
サッカーリーグ	-11.3545
の旅	-11.3546
懲役	-11.3546
集まった	-11.3546
上院	-11.3548
していたこと	-11.3548
行方不明	-11.3549
子供の	-11.355
ケネディ	-11.3551
さを	-11.3552
アメリカ海軍	-11.3552
の著書	-11.3552
ren	-11.3552
最後は	-11.3553
流用	-11.3554
オープンした	-11.3556
に加わった	-11.3557
蓄積	-11.3558
上から	-11.3558
ue	-11.3559
を残し	-11.356
音楽家	-11.3561
"」	-11.3561
再選	-11.3561
国語	-11.3561
崩	-11.3561
超人	-11.3562
フォーマット	-11.3562
層の	-11.3563
マイン	-11.3563
楠	-11.3563
フランソワ	-11.3565
を聞いた	-11.3566
マーケット	-11.3566
しめ	-11.3567
拡大した	-11.3568
決断	-11.3569
デュー	-11.3569
式で	-11.357
を要する	-11.3571
書類	-11.3571
ナイター	-11.3573
の教育	-11.3573
就役	-11.3574
暮らす	-11.3574
詳細な	-11.3575
を起用	-11.3575
を知った	-11.3576
突如	-11.3577
1904	-11.3577
吉川	-11.3578
ゾー	-11.3579
は一切	-11.358
注文	-11.358
砂糖	-11.3581
を装備し	-11.3581
再会	-11.3581
trans	-11.3583
ning	-11.3585
に続き	-11.3585
ムン	-11.3586
冬の	-11.3587
新生	-11.3588
バージニア	-11.3588
記録は	-11.359
改訂	-11.359
媒体	-11.3592
大津	-11.3593
▁1926	-11.3595
亡	-11.3596
を組んで	-11.3597
婚約	-11.3598
特別番組	-11.3599
市で	-11.3601
アパート	-11.3602
掌	-11.3603
のほうが	-11.3604
日本の政治家	-11.3604
−	-11.3605
重要である	-11.3605
短期間	-11.3606
批評	-11.3607
を防ぐ	-11.3608
中京	-11.3608
電動	-11.3608
鉛	-11.3609
祖母	-11.3613
支持者	-11.3613
の中央	-11.3614
顕著	-11.3615
の領域	-11.3615
逸話	-11.3615
ung	-11.3615
1934	-11.3616
も同じ	-11.3618
java	-11.3618
胎	-11.3622
▁ある日	-11.3622
復活した	-11.3623
pk	-11.3623
はそれ	-11.3624
生活を	-11.3624
嘆	-11.3624
フロリダ州	-11.3624
1875	-11.3626
▁イ	-11.3626
オク	-11.3626
想像	-11.3626
正統	-11.3628
que	-11.3628
1877	-11.363
cer	-11.363
の学生	-11.3631
南北戦争	-11.3631
エントリー	-11.3631
縫	-11.3631
をめぐる	-11.3631
デトロイト	-11.3631
世界に	-11.3632
各々	-11.3632
フランクフルト	-11.3633
江戸幕府	-11.3634
両方	-11.3636
危険な	-11.3636
日活	-11.3637
徴収	-11.3639
結婚式	-11.3639
ゆく	-11.364
クン	-11.3641
ダグラス	-11.3642
とする説	-11.3642
の女	-11.3643
ヒューストン	-11.3644
浴	-11.3646
選出された	-11.3646
社会人	-11.3647
吐	-11.3647
を決定する	-11.3648
7000	-11.365
オファー	-11.365
泡	-11.3651
サウルス	-11.3651
モラ	-11.3654
品川	-11.3655
島式ホーム	-11.3655
を獲得する	-11.3655
自作	-11.3656
換え	-11.3657
言われ	-11.3659
戦争で	-11.366
を奪い	-11.366
製作所	-11.3662
地球の	-11.3662
と呼称	-11.3663
了	-11.3663
を強く	-11.3663
▁by	-11.3663
学校で	-11.3664
愛知県名古屋市	-11.3665
を製作	-11.3667
決着	-11.3667
たことで	-11.367
コッ	-11.3671
大谷	-11.3672
描き	-11.3673
アラビア語	-11.3673
前後に	-11.3673
▁加えて	-11.3674
イングランドの	-11.3674
ムービー	-11.3674
盲	-11.3675
研究員	-11.3676
バリエーション	-11.3677
に就いた	-11.3677
部分の	-11.3678
れい	-11.3678
十三	-11.3678
旅館	-11.3678
開発した	-11.3679
東西に	-11.3679
自らが	-11.368
その中に	-11.3682
発揮	-11.3682
の一員として	-11.3682
はしばしば	-11.3682
大塚	-11.3683
が使われる	-11.3684
ジョセフ	-11.3685
持続	-11.3686
オーストラリアの	-11.3686
展示されている	-11.3686
受容体	-11.3686
▁この際	-11.3688
毎週	-11.3689
川越	-11.3689
▁ジョン	-11.3689
人物である	-11.3691
連続で	-11.3692
昼間	-11.3693
三国	-11.3693
づくり	-11.3693
北アメリカ	-11.3694
bd	-11.3695
アピール	-11.3696
くじ	-11.3697
慣習	-11.3698
金融機関	-11.3699
本格	-11.37
枕	-11.37
小路	-11.37
わし	-11.3701
はまた	-11.3701
転用	-11.3702
高かった	-11.3703
デルタ	-11.3704
レベルの	-11.3705
取扱	-11.3706
が起きた	-11.3706
太子	-11.3707
路線の	-11.3707
に使用される	-11.3707
トリノ	-11.371
原田	-11.3711
に転じた	-11.3711
郡にあった村	-11.3714
が建設され	-11.3714
レナ	-11.3714
テレビ局	-11.3715
生前	-11.3715
話す	-11.3715
アンドレ	-11.3716
惣	-11.3716
役に	-11.3717
在日	-11.3718
否	-11.3719
活発	-11.3719
問題を	-11.3721
詠	-11.3721
枠で	-11.3722
陣地	-11.3723
思考	-11.3724
人間が	-11.3724
メンバーが	-11.3724
管内	-11.3725
ろく	-11.3725
フェラーリ	-11.3726
ov	-11.3726
全土	-11.3728
重大な	-11.3728
動物園	-11.3729
-12	-11.3729
ピカ	-11.3732
アト	-11.3732
盾	-11.3733
上限	-11.3734
中でも	-11.3734
low	-11.3735
看護	-11.3738
だったという	-11.3738
が進められ	-11.374
ラヴ	-11.374
幾何学	-11.3742
帽子	-11.3742
で敗れ	-11.3743
奪還	-11.3744
作家の	-11.3744
れて	-11.3745
先住民	-11.3745
を強め	-11.3745
を引き起こす	-11.3746
改称	-11.3746
一般的	-11.3747
秩父	-11.3748
軍艦	-11.3748
出典	-11.3749
ドレ	-11.375
試合に登板し	-11.375
蹴	-11.375
ルク	-11.375
牧野	-11.3752
は困難	-11.3752
後述する	-11.3755
水源	-11.3755
引き分け	-11.3755
ウォン	-11.3755
出演する	-11.3759
シャツ	-11.3759
らに	-11.3759
記述する	-11.3762
節の	-11.3762
の教授	-11.3763
全曲	-11.3764
付く	-11.3764
見事	-11.3765
寛文	-11.3765
心配	-11.3765
を維持する	-11.3765
type	-11.3765
保障	-11.3766
の初代	-11.3768
エッセイ	-11.3768
呼びかけ	-11.3768
を歴任した	-11.377
挙げられ	-11.3771
意義	-11.3771
1932	-11.3772
が出来	-11.3773
ウラン	-11.3774
のデータ	-11.3774
増設	-11.3775
乗り換え	-11.3775
塗	-11.3777
するような	-11.3778
レイン	-11.3779
海兵隊	-11.3779
が一般的である	-11.3782
10%	-11.3782
旋回	-11.3783
推奨	-11.3783
に応え	-11.3784
に基づいた	-11.3784
地上波	-11.3785
中毒	-11.3785
武力	-11.3786
稽古	-11.3786
ムラ	-11.3786
南朝	-11.3789
ワーナー	-11.379
主席	-11.3791
窒素	-11.3791
あか	-11.3792
の子会社	-11.3792
歳の時	-11.3793
を開いた	-11.3793
合流する	-11.3794
販売している	-11.3796
勢力を	-11.3796
{	-11.3797
名声	-11.3798
1935	-11.3799
のいずれか	-11.3801
高校の	-11.3801
日放送分	-11.3803
に向かい	-11.3803
州都	-11.3804
簿	-11.3806
、1920	-11.3806
は少なく	-11.3809
の重要な	-11.3811
収穫	-11.3811
足利義	-11.3815
人目	-11.3815
母は	-11.3815
殺人事件	-11.3816
ズが	-11.3816
行動を	-11.3818
好調	-11.3818
貯	-11.3818
万年前	-11.3818
が建設された	-11.3819
地として	-11.3821
製薬	-11.3821
実務	-11.3822
を失って	-11.3822
求め	-11.3823
株主	-11.3823
イギリスで	-11.3826
筆頭	-11.3826
題材	-11.3827
▁1919	-11.3828
などによって	-11.3829
石垣	-11.3831
せて	-11.3831
が形成され	-11.3833
レバー	-11.3834
を攻め	-11.3834
汚	-11.3834
三好	-11.3835
解明	-11.3835
伝記	-11.3835
に編入	-11.3836
人質	-11.3837
一時は	-11.3837
見られない	-11.3839
自立	-11.3839
位置づけ	-11.3841
パレスチナ	-11.3841
▁のちに	-11.3842
家畜	-11.3843
去る	-11.3843
線形	-11.3844
呼び	-11.3844
魚類	-11.3847
ホイール	-11.3848
ガソリン	-11.3848
メロ	-11.3848
馬車	-11.3849
問題は	-11.3849
卒業生	-11.3849
位となり	-11.3849
mil	-11.3851
コック	-11.3852
アメ	-11.3852
シラ	-11.3854
チーフ	-11.3855
1883	-11.3855
を踏まえ	-11.3856
の経験	-11.3858
果て	-11.3859
蕭	-11.3859
シンガーソングライター	-11.3859
年代まで	-11.386
競技場	-11.3863
ネズミ	-11.3863
入れた	-11.3863
ell	-11.3863
大王	-11.3864
フォーム	-11.3865
wwe	-11.3865
滞	-11.3866
明かし	-11.3867
わり	-11.3871
試合に出場	-11.3873
フェイス	-11.3874
例である	-11.3875
ユニバーサル	-11.3875
アーク	-11.3877
なき	-11.3878
ich	-11.3878
式典	-11.3878
を導入し	-11.3879
の間には	-11.388
財団法人	-11.3881
取って	-11.3881
に終わる	-11.3882
ジェフ	-11.3882
▁金	-11.3884
腐	-11.3885
▁そのほか	-11.3886
▁これまで	-11.3887
に耐え	-11.3888
王は	-11.3889
と思った	-11.3892
bit	-11.3892
十郎	-11.3892
藤井	-11.3893
の要請	-11.3893
を中心として	-11.3894
住民の	-11.3895
駿河	-11.3897
評論	-11.3898
表記は	-11.3903
▁an	-11.3903
ターゲット	-11.3903
考察	-11.3906
陰謀	-11.3906
ou	-11.3908
長女	-11.3908
ヴィッ	-11.391
豊富	-11.391
が必要となる	-11.391
フェー	-11.391
メカ	-11.391
と主張している	-11.3911
▁パ	-11.3913
ナポリ	-11.3913
定義される	-11.3916
近年では	-11.3918
の値	-11.3918
燃え	-11.3919
ヒロ	-11.3919
敗で	-11.3919
ギャラリー	-11.3919
に関する法律	-11.3919
明確に	-11.3921
配属	-11.3922
薩摩	-11.3922
位を獲得	-11.3925
制の	-11.3926
両者の	-11.3926
柴田	-11.3927
sun	-11.3927
オリックス	-11.3927
gk	-11.3928
する方法	-11.3928
tan	-11.3929
皿	-11.393
高層	-11.393
ったが	-11.393
これにより	-11.3931
アメリカ陸軍	-11.3932
酷	-11.3933
らく	-11.3934
通し	-11.3936
転向	-11.3936
適切	-11.3937
初回限定盤	-11.3937
正月	-11.3938
金の	-11.3938
座標	-11.394
告	-11.3941
やかな	-11.3941
阻害	-11.3941
:)	-11.3941
代官	-11.3941
ホセ	-11.3942
西村	-11.3943
フランス人	-11.3943
八戸	-11.3943
どのように	-11.3944
委員会の	-11.3945
左派	-11.3946
に応じ	-11.3946
も多かった	-11.3947
power	-11.3948
1863	-11.395
.,	-11.395
としての活動	-11.395
▁or	-11.3951
したことから	-11.3951
挨拶	-11.3952
との契約	-11.3952
地理学	-11.3952
▁別名	-11.3953
を挙げている	-11.3954
ルノー	-11.3955
クサ	-11.3956
悲	-11.3956
平安	-11.3956
仰	-11.3957
uk	-11.3957
話を	-11.3958
浅野	-11.396
タイミング	-11.396
棋	-11.396
san	-11.3961
に渡る	-11.3963
教育委員会	-11.3964
つながり	-11.3965
プライ	-11.3965
長を務めた	-11.3966
一揆	-11.3969
徳川家	-11.3969
演奏会	-11.397
を加える	-11.397
に完成した	-11.397
戯曲	-11.3971
を紹介する	-11.3972
が特徴である	-11.3972
廟	-11.3972
偉大な	-11.3972
rn	-11.3974
}	-11.3974
として初めて	-11.3975
が続き	-11.3976
力学	-11.3976
弁護	-11.3976
叶	-11.3976
1.6	-11.3976
東大	-11.3978
本州	-11.3979
墜落	-11.3981
するようになる	-11.3982
が採用された	-11.3983
4.5	-11.3984
▁そのような	-11.3985
クリーム	-11.3986
通りの	-11.3987
が与えられた	-11.3987
名人	-11.3988
凡	-11.399
は多くの	-11.3992
神戸市	-11.3992
ローレンス	-11.3994
カタルーニャ	-11.3995
火星	-11.3996
戻し	-11.3997
横山	-11.3997
を指し	-11.3998
が起き	-11.3998
を卒業し	-11.4
北端	-11.4
東京市	-11.4
法学	-11.4
ug	-11.4001
讃	-11.4001
の初期	-11.4002
ポスター	-11.4002
腫瘍	-11.4004
▁【	-11.4005
日向	-11.4005
整え	-11.4006
生きる	-11.4006
出来なかった	-11.4007
ハンス	-11.4008
みん	-11.4008
阿波	-11.4008
機動戦士ガンダム	-11.4008
胴	-11.4008
視察	-11.401
の合計	-11.4011
一般的には	-11.4011
▁それまで	-11.4011
敗れ	-11.4012
付けられている	-11.4013
とのこと	-11.4015
の会	-11.4017
へ移籍した	-11.4017
を行なった	-11.4017
来て	-11.4018
川流域	-11.4018
放送していた	-11.4018
思い出	-11.4018
当番組	-11.4018
に所属している	-11.4019
再発	-11.4021
ブール	-11.4021
に似ている	-11.4022
部隊を	-11.4023
リナ	-11.4023
を使用	-11.4025
聖職者	-11.4025
申し出	-11.4026
インディ	-11.4026
年金	-11.4026
スウェーデンの	-11.4028
毅	-11.4028
を組み合わせた	-11.4028
クラブの	-11.4029
キラ	-11.4033
苑	-11.4034
日本の俳優	-11.4034
隊が	-11.4036
に収録された	-11.4037
高速バス	-11.4037
適合	-11.4039
を捨て	-11.4039
は彼の	-11.404
シマ	-11.404
vel	-11.404
を買い	-11.4041
造営	-11.4042
国際映画祭	-11.4042
▁母は	-11.4043
右手	-11.4043
薫	-11.4043
アップル	-11.4044
bar	-11.4044
1200	-11.4045
対象となる	-11.4045
を担当している	-11.4046
のう	-11.4046
要望	-11.4048
ルーキー	-11.4049
全集	-11.4051
の成立	-11.4052
わずかに	-11.4052
田川	-11.4052
するようになり	-11.4053
タマ	-11.4053
あわせて	-11.4053
を変える	-11.4054
を必要とする	-11.4055
対岸	-11.4056
アルファベット	-11.4057
ざる	-11.4057
働いて	-11.406
中継局	-11.406
に従う	-11.4062
双子	-11.4062
水の	-11.4063
住居表示	-11.4064
つけられた	-11.4065
nes	-11.4065
法務	-11.4065
カウント	-11.4065
ノット	-11.4066
ウェー	-11.4066
ロードレース	-11.4066
部で	-11.4067
出家	-11.4067
が整備され	-11.4068
フィッシュ	-11.4068
化して	-11.4068
以外では	-11.407
粒	-11.407
クラフト	-11.4071
ないので	-11.4072
在学中に	-11.4076
文化的	-11.4076
サロン	-11.4077
リアス	-11.4077
を提供している	-11.4079
ペルシア	-11.408
の詩	-11.408
女の子	-11.408
合金	-11.408
に来た	-11.4082
に従事した	-11.4082
辞典	-11.4084
セレ	-11.4085
同年の	-11.4086
属性	-11.4086
国内外	-11.4087
地盤	-11.4088
として活躍した	-11.4088
歓	-11.4089
町立	-11.4089
自分で	-11.4089
王室	-11.409
キリスト教徒	-11.4092
集積	-11.4092
その名	-11.4094
際は	-11.4095
徴	-11.4095
悠	-11.4096
の提供	-11.4097
ブライ	-11.4098
太夫	-11.4098
1931	-11.4099
設立した	-11.4099
観光地	-11.4102
に応じた	-11.4104
に進む	-11.4105
商船	-11.4105
ドクター	-11.4106
!!』	-11.4106
台頭	-11.4108
暴動	-11.4108
労働党	-11.4108
条第	-11.4109
安田	-11.411
予定であったが	-11.4111
村山	-11.4112
ビジョン	-11.4112
赤軍	-11.4113
は常に	-11.4114
ハリス	-11.4114
チル	-11.4114
のではないかと	-11.4114
威力	-11.4115
首を	-11.4115
ハミルトン	-11.4115
どり	-11.4117
ステル	-11.4117
近接	-11.4119
股	-11.4119
契約を	-11.4119
駅周辺	-11.4122
を置き	-11.4122
遂行	-11.4123
コンスタン	-11.4125
暑	-11.4126
調教師	-11.4128
外に	-11.4129
熊谷	-11.4129
アジ	-11.4129
並び	-11.4131
半数	-11.4134
近年は	-11.4138
エンジニア	-11.4138
プラスチック	-11.414
▁本作の	-11.4142
武蔵野	-11.4142
錯	-11.4143
体内	-11.4144
仲介	-11.4145
芦	-11.4145
車を	-11.4146
液晶	-11.4148
語った	-11.4148
取り扱い	-11.4148
南端	-11.4148
社会の	-11.4149
を構え	-11.4149
小田	-11.4151
分ける	-11.4152
せない	-11.4153
blu	-11.4155
▁二	-11.4156
現金	-11.4157
先祖	-11.4158
ris	-11.4159
貸し	-11.4159
みなみ	-11.416
打席	-11.416
グリー	-11.4161
大砲	-11.4163
▁1922	-11.4163
ロジャー	-11.4164
人物が	-11.4164
聡	-11.4164
を上げる	-11.4165
同誌	-11.4165
を加えて	-11.4166
曲目	-11.4166
とよ	-11.4167
ring	-11.4167
決まり	-11.4167
単位で	-11.4168
総数	-11.417
鉢	-11.417
米国の	-11.4171
カテゴリー	-11.4171
数千	-11.4171
国会議員	-11.4172
に陥った	-11.4172
紀伊	-11.4173
軽減	-11.4173
場所は	-11.4174
状況を	-11.4175
縄	-11.4175
nor	-11.4177
で死去	-11.4178
正しく	-11.4178
申し	-11.4178
を選ぶ	-11.4179
年までの	-11.4179
に多く	-11.4179
nato	-11.418
想い	-11.4181
番組で	-11.4181
の育成	-11.4181
特権	-11.4182
4,000	-11.4184
連邦政府	-11.4186
権威	-11.4186
最近では	-11.4187
鳥羽	-11.4187
ミステリー	-11.4189
air	-11.4191
危惧	-11.4191
迎撃	-11.4191
に移し	-11.4191
幡	-11.4191
リョ	-11.4193
シチリア	-11.4193
踏	-11.4194
戦目	-11.4194
るような	-11.4195
らを	-11.4195
入る	-11.4195
行える	-11.4196
ial	-11.4197
の危機	-11.4197
ソ連の	-11.4199
は極めて	-11.42
が追加された	-11.42
短期	-11.4201
探検	-11.4202
小沢	-11.4202
東京都立	-11.4203
アルバ	-11.4203
追撃	-11.4204
人であった	-11.4204
一種の	-11.4205
出入り	-11.4207
という説	-11.4208
討	-11.4208
ホームページ	-11.4209
.)	-11.421
水域	-11.4211
高野	-11.4211
hol	-11.4212
ライス	-11.4212
中型	-11.4213
ぽ	-11.4213
の報告	-11.4213
bor	-11.4215
絹	-11.4216
生没年不詳	-11.4216
男が	-11.4216
文学者	-11.4217
の性質	-11.4217
慈	-11.4217
するのが	-11.4218
一面	-11.4218
賞賛	-11.422
ボイス	-11.422
が知られている	-11.422
モデルは	-11.4222
▁一部の	-11.4222
獅子	-11.4222
iz	-11.4222
反面	-11.4223
割れ	-11.4223
置換	-11.4224
セリ	-11.4224
と言われた	-11.4225
当選した	-11.4225
安倍	-11.4225
ぞく	-11.4225
オーディオ	-11.4226
シール	-11.4227
通りに	-11.4228
ファイア	-11.4232
賭け	-11.4232
-19	-11.4233
考える	-11.4234
渡る	-11.4234
1861	-11.4235
伊予	-11.4238
ユーザ	-11.4239
実用化	-11.4241
尖	-11.4241
ベッド	-11.4242
全体が	-11.4243
地理	-11.4243
プラハ	-11.4244
euro	-11.4244
ドライ	-11.4245
スイスの	-11.4247
▁基本的に	-11.4247
越し	-11.4248
クシ	-11.4249
混ぜ	-11.4249
▁たか	-11.4249
回る	-11.4249
指標	-11.425
挿絵	-11.425
製作の	-11.4251
クィ	-11.4253
▁逆に	-11.4253
してくる	-11.4254
従軍	-11.4255
クション	-11.4256
を命じた	-11.4257
記念碑	-11.4257
抄	-11.4258
僧侶	-11.4258
那覇	-11.4258
前日	-11.4258
アルバイト	-11.4259
▁1917	-11.4259
似ている	-11.4259
に留まった	-11.426
ニク	-11.426
を主張し	-11.4261
の治療	-11.4262
let	-11.4263
小泉	-11.4263
教官	-11.4263
封じ	-11.4267
ws	-11.4268
没収	-11.4269
間を	-11.427
神道	-11.427
回し	-11.427
換	-11.4275
却	-11.4276
uc	-11.4276
後援	-11.4277
を目的に	-11.4277
を採用	-11.4278
ヶ丘	-11.4279
宗家	-11.4279
に隣接する	-11.4279
í	-11.4281
永久	-11.4281
は以下の通りである	-11.4283
十一	-11.4284
が図られ	-11.4285
婚姻	-11.4285
虹	-11.4285
に拠れば	-11.4285
ジェル	-11.4286
電撃	-11.4287
を建設する	-11.4287
ザイ	-11.4288
代当主	-11.4289
少なかった	-11.429
"-	-11.429
高額	-11.4291
種は	-11.4293
中尉	-11.4294
変わらない	-11.4294
スペクトル	-11.4295
市内に	-11.4295
であったことから	-11.4296
に選出され	-11.4296
慰	-11.4297
発展し	-11.4297
の映像	-11.43
ヘッドコーチ	-11.43
ウィーク	-11.4303
棺	-11.4304
パレード	-11.4304
を送る	-11.4304
ポケット	-11.4305
紹介された	-11.4307
ドス	-11.4307
連装	-11.4308
イラストレーター	-11.4308
の規模	-11.431
かえ	-11.431
に分けられる	-11.4311
水野	-11.4311
顧	-11.4312
津市	-11.4312
が実施された	-11.4312
フラッシュ	-11.4313
が登場した	-11.4314
認められる	-11.4314
ことが判明	-11.4315
述べた	-11.4316
1928	-11.4317
インディーズ	-11.4318
デリー	-11.4319
させようと	-11.4319
仙台市	-11.4319
ことはなく	-11.432
バンドの	-11.432
確認できる	-11.432
tin	-11.4321
西端	-11.4322
デッド	-11.4323
開発され	-11.4324
府中	-11.4325
の観点から	-11.4325
構造の	-11.4325
岐	-11.4326
送った	-11.4327
まき	-11.4329
サンディエゴ	-11.433
▁韓国	-11.433
冷戦	-11.4331
名門	-11.4332
ブロードウェイ	-11.4333
晶	-11.4334
ツイン	-11.4335
始動	-11.4337
出向	-11.4338
見せ	-11.4338
難しい	-11.4339
断絶	-11.4339
750	-11.4339
本拠	-11.434
black	-11.4341
内部に	-11.4342
っても	-11.4342
スと	-11.4343
橋の	-11.4343
モニ	-11.4344
をつけて	-11.4346
の出場	-11.4346
牌	-11.4346
免除	-11.4349
bbc	-11.4352
定められている	-11.4353
を対象とした	-11.4357
トは	-11.4357
コモ	-11.4357
tur	-11.4357
築かれ	-11.4359
▁ホーム	-11.4359
去り	-11.4359
上げて	-11.4359
合わせる	-11.436
リーグ優勝	-11.436
朴	-11.436
マンハッタン	-11.4362
放置	-11.4362
ä	-11.4364
コリ	-11.4364
メト	-11.4364
の一部として	-11.4366
ていたこと	-11.4366
働く	-11.4368
1929	-11.4369
遡	-11.4369
東端	-11.437
ムル	-11.437
志向	-11.437
木製	-11.4371
▁ハ	-11.4372
sil	-11.4372
自由主義	-11.4372
入会	-11.4373
社会学	-11.4373
借金	-11.4373
ino	-11.4375
あた	-11.4375
yl	-11.4376
を支持する	-11.438
1867	-11.4382
飲食店	-11.4383
南区	-11.4383
鉄道は	-11.4386
を通過する	-11.4386
ani	-11.4386
コンピューター	-11.4387
ータ	-11.4389
つつあった	-11.4389
ban	-11.4392
を備え	-11.4394
を直接	-11.4394
学び	-11.4394
書物	-11.4397
有人	-11.4397
硬貨	-11.4397
海の	-11.4397
年以来	-11.4399
マーケティング	-11.4399
ランス	-11.4399
スラヴ	-11.44
グア	-11.44
運送	-11.4401
"("	-11.4401
計画が	-11.4401
▁windows	-11.4401
バッテリー	-11.4403
発覚	-11.4404
防空	-11.4404
で唯一	-11.4405
麻薬	-11.4407
監査	-11.4408
飲	-11.4408
大統領の	-11.4408
ひょう	-11.4409
条の	-11.4409
広範囲	-11.4409
hen	-11.4409
製品の	-11.4411
▁引退後は	-11.4411
けど	-11.4412
兵庫	-11.4412
▁もし	-11.4412
通商	-11.4412
塵	-11.4412
и	-11.4413
逃	-11.4415
慢性	-11.4417
翌年には	-11.4419
んです	-11.4419
▁血液型	-11.442
ざん	-11.4421
cap	-11.4421
ü	-11.4421
jra	-11.4421
誘い	-11.4421
▁近年では	-11.4422
による日本の漫画作品	-11.4422
十六	-11.4422
▁school	-11.4423
嘉永	-11.4427
rus	-11.4429
リット	-11.4429
があれば	-11.443
の壁	-11.4431
休養	-11.4432
堰	-11.4432
sco	-11.4436
▁1921	-11.444
天才	-11.444
オットー	-11.444
の御	-11.4441
国旗	-11.4443
っていく	-11.4444
センス	-11.4445
ヤマト	-11.4446
アベニュー	-11.4446
ace	-11.4447
のタイトルで	-11.4448
の主力	-11.4448
、1936	-11.4449
アフ	-11.4449
作中で	-11.445
不動	-11.445
更	-11.445
か国	-11.4451
ドキュメンタリー	-11.4451
が成立し	-11.4452
検事	-11.4452
てくれた	-11.4452
ロワ	-11.4453
キャッシュ	-11.4454
凶	-11.4455
シェン	-11.4455
かぶ	-11.4455
ビートルズ	-11.4456
将来の	-11.4456
を手に	-11.4457
でプレーし	-11.4457
監督に就任	-11.4458
を設置する	-11.4459
尊敬	-11.4459
位置付け	-11.446
空手	-11.446
現行	-11.4461
必要があった	-11.4463
発見され	-11.4463
捕らえ	-11.4464
の中心部	-11.4465
ゴジラ	-11.4465
○○	-11.4465
制定された	-11.4467
コリン	-11.4467
漫才	-11.4467
主砲	-11.4468
質の	-11.4469
改定	-11.4471
犯行	-11.4472
公開され	-11.4475
を取り入れ	-11.4479
樹木	-11.448
の良い	-11.448
ッソ	-11.448
欧州連合	-11.4482
▁fe	-11.4482
1-2	-11.4483
特色	-11.4483
尋ね	-11.4483
世界中の	-11.4484
分泌	-11.4486
ade	-11.4486
得られた	-11.4487
宴	-11.4488
新羅	-11.4488
傾	-11.4489
欧	-11.4489
を継承した	-11.449
、1939	-11.449
特異	-11.4492
とも言われる	-11.4492
王女	-11.4492
ニコライ	-11.4494
の登場人物	-11.4495
夫が	-11.4495
放映された	-11.4495
▁よって	-11.4495
焼失	-11.4495
後日	-11.4497
経済学者	-11.4497
課税	-11.4497
年度に	-11.4498
水面	-11.4499
煙突	-11.4499
蝶	-11.4501
諸侯	-11.4501
ャ	-11.4501
イザ	-11.4502
マジ	-11.4502
内容を	-11.4502
リフト	-11.4505
を進めた	-11.4507
潔	-11.4508
改組	-11.451
いちらん	-11.4511
国際大会	-11.4512
店の	-11.4513
親族	-11.4515
墳	-11.4516
組み立て	-11.4516
優勝者	-11.4517
の半分	-11.4517
nasa	-11.4517
鰭	-11.4518
▁1914	-11.4519
が誕生した	-11.4519
で開催される	-11.452
写真家	-11.4521
牙	-11.4522
ーブ	-11.4524
築城	-11.4526
刻まれ	-11.4527
エンターテインメント	-11.4528
とも呼ばれ	-11.4529
ロシア帝国	-11.4529
条項	-11.453
(2011	-11.4531
片側	-11.4532
使われる	-11.4532
ホモ	-11.4533
などといった	-11.4534
帝国の	-11.4535
を備える	-11.4535
西鉄	-11.4535
基部	-11.4536
に属している	-11.4536
ッケ	-11.4537
役として	-11.4538
を必要とし	-11.4538
はじめて	-11.4538
存在しない	-11.4539
年代半ば	-11.4539
ケープ	-11.454
カルト	-11.4541
者数	-11.4542
除外	-11.4542
採取	-11.4542
なが	-11.4542
オルガン	-11.4543
お笑い	-11.4543
ツァー	-11.4545
監修	-11.4545
口に	-11.4548
信徒	-11.4548
を奪われ	-11.4548
ッチャー	-11.4549
撰	-11.455
東海道	-11.455
州立大学	-11.4551
で開催	-11.4551
計画を	-11.4551
内陸	-11.4552
趣旨	-11.4552
抽出	-11.4553
述べ	-11.4554
産駒	-11.4554
1865	-11.4555
が完成した	-11.4556
漆	-11.4556
早川	-11.4556
井戸	-11.4556
を通り	-11.4556
射程	-11.4556
ルートヴィヒ	-11.4558
サール	-11.4559
テリ	-11.456
ンガ	-11.4561
山内	-11.4561
に過ぎない	-11.4561
を開き	-11.4561
疎	-11.4562
モデルの	-11.4563
踏切	-11.4566
▁この結果	-11.4566
エアロ	-11.4567
田辺	-11.4568
ばれ	-11.4568
を支援する	-11.457
鴨	-11.457
の一角	-11.457
ヤンキース	-11.4572
我が	-11.4573
の終わり	-11.4573
福岡市	-11.4573
武家	-11.4573
▁ad	-11.4576
パリの	-11.4576
田原	-11.4576
公務員	-11.4576
鎌	-11.4577
まれた	-11.4579
を集めて	-11.4579
大地	-11.4581
本大会	-11.4581
岡本	-11.4581
先代	-11.4582
東山	-11.4582
位だった	-11.4583
解説者	-11.4583
ところを	-11.4583
サスペンション	-11.4583
撃ち	-11.4584
能力を	-11.4585
より発売された	-11.4585
カーン	-11.4585
外来	-11.4586
書かれ	-11.4586
▁世界	-11.4587
組織の	-11.4587
擁立	-11.4588
京都大学	-11.4588
フォーミュラ	-11.4589
del	-11.459
支配下	-11.4591
グマ	-11.4591
key	-11.4592
さつ	-11.4592
ナビ	-11.4592
犬種	-11.4593
md	-11.4595
に仕えた	-11.4596
内装	-11.4597
▁si	-11.4597
ez	-11.4599
寸	-11.4599
クマ	-11.46
寄せ	-11.4601
括弧	-11.4601
透	-11.4601
ホス	-11.4602
にしか	-11.4603
和泉	-11.4603
公布	-11.4603
コーポレーション	-11.4605
フォックス	-11.4606
の有無	-11.4608
につながる	-11.4609
ソ連軍	-11.461
祭神	-11.461
を支持し	-11.461
枚目のアルバム	-11.461
翌年に	-11.4611
スケジュール	-11.4611
異なった	-11.4613
年代にかけて	-11.4613
、1937	-11.4615
ハロ	-11.462
不安定	-11.462
都市である	-11.4621
樹脂	-11.4622
成熟	-11.4622
を記念して	-11.4624
スワ	-11.4625
進撃	-11.4625
rb	-11.4625
であったという	-11.4627
採用され	-11.4627
貼	-11.4628
バナ	-11.4628
伝統的に	-11.4628
排水	-11.4629
ことが明らか	-11.463
月以降	-11.4633
借り	-11.4633
クリーク	-11.4634
那須	-11.4634
に入学	-11.4634
試合に出場した	-11.4635
一次	-11.4636
を多数	-11.4636
基幹	-11.4636
丹波	-11.4636
▁真	-11.4637
傾向にある	-11.4638
マーシャル	-11.464
歩く	-11.464
lc	-11.4641
含め	-11.4641
を設置した	-11.4643
特番	-11.4643
ウィング	-11.4643
職を	-11.4643
八王子	-11.4644
ロジー	-11.4645
と戦う	-11.4645
排気	-11.4647
旧姓	-11.4647
倍の	-11.4648
向かい	-11.4649
の略	-11.4649
に分布する	-11.4649
野外	-11.4651
活動は	-11.4652
控訴	-11.4653
菩薩	-11.4653
曹操	-11.4653
知的	-11.4655
甚	-11.4655
驚	-11.4656
これ以降	-11.4656
他国	-11.4656
ジャス	-11.4657
俳優の	-11.4657
しまい	-11.4657
cb	-11.4659
されるなど	-11.466
外れ	-11.466
元来	-11.4664
ale	-11.4665
博士課程	-11.4665
最高速度	-11.4665
議会は	-11.4666
を演じ	-11.4667
に大	-11.4667
’	-11.4667
おさ	-11.4667
させるため	-11.467
絞	-11.4673
水田	-11.4674
背負	-11.4676
国勢調査	-11.4676
元気	-11.4677
津田	-11.4677
に於いて	-11.4677
重点	-11.4677
に変化	-11.4678
@	-11.4679
川村	-11.4681
身の	-11.4681
を認めた	-11.4681
幼少期	-11.4682
泣	-11.4682
キッド	-11.4683
アルミニウム	-11.4683
ニコラ	-11.4684
出血	-11.4687
噴	-11.4688
▁sp	-11.4688
ていき	-11.4688
インストール	-11.4689
することがある	-11.4691
酒井	-11.4692
出羽	-11.4692
明治維新	-11.4693
作られ	-11.4695
大社	-11.4696
中核	-11.4699
ニウム	-11.4699
日付の	-11.4701
高齢者	-11.4701
部門の	-11.4703
を完成させ	-11.4705
の成功	-11.4706
内閣総理大臣	-11.4707
る形で	-11.4708
多くの場合	-11.4709
住み	-11.4709
▁ka	-11.471
に従事	-11.471
元は	-11.471
の廃止	-11.4711
リブ	-11.4711
、1938	-11.4711
極東	-11.4711
_4	-11.4713
シンガー	-11.4713
巡回	-11.4713
停留場	-11.4713
かせる	-11.4715
をめぐって	-11.4715
娯楽	-11.4715
あらかじめ	-11.4715
月上旬	-11.4715
出土	-11.4716
zu	-11.4716
芸能界	-11.4718
レッジ	-11.4718
りと	-11.4718
難易度	-11.4719
ニーズ	-11.472
ヴィッチ	-11.4721
神奈川県横浜市	-11.4722
方式で	-11.4722
以降も	-11.4722
ビルボード	-11.4722
の方針	-11.4722
と評している	-11.4723
屋の	-11.4724
ゲリラ	-11.4725
固体	-11.4726
投票で	-11.4727
として参加	-11.4728
歌謡	-11.4728
将軍の	-11.4728
now	-11.4729
通知	-11.4729
大統領は	-11.4731
いったん	-11.4731
ステレオ	-11.4732
宝暦	-11.4732
真空	-11.4733
突撃	-11.4733
0.2	-11.4733
全部	-11.4735
人目の	-11.4735
値は	-11.4736
替わり	-11.4736
過剰	-11.4737
圓	-11.4737
大夫	-11.4737
活躍し	-11.4737
アレン	-11.4737
タバコ	-11.4741
この時期	-11.4742
されることがある	-11.4742
渕	-11.4743
攻撃を	-11.4746
個性	-11.4747
号を	-11.4747
南は	-11.4748
センサー	-11.475
内部の	-11.4751
と見なされ	-11.4752
原発	-11.4752
樹立	-11.4752
で発生した	-11.4753
に強い	-11.4753
テッド	-11.4753
アドルフ	-11.4753
を収録	-11.4754
エイト	-11.4755
ow	-11.4755
実際	-11.4755
用いた	-11.4756
等級	-11.4756
日本初の	-11.4756
の軍人	-11.4758
とは別	-11.4759
の時代に	-11.4759
めん	-11.4762
が好き	-11.4763
が設けられた	-11.4763
切手	-11.4765
を始めとする	-11.4766
ざい	-11.4767
行政区	-11.4767
の練習	-11.4768
容疑で	-11.4768
多様体	-11.477
成長した	-11.477
誘拐	-11.4771
リリースした	-11.4772
下野	-11.4772
川が	-11.4772
例は	-11.4774
1924	-11.4774
フランシス	-11.4774
完了した	-11.4776
真っ	-11.4778
の採用	-11.4779
発祥	-11.478
を制し	-11.478
学んだ	-11.478
主翼	-11.4782
狙い	-11.4782
国営	-11.4782
学部教授	-11.4783
ハマ	-11.4784
掘り	-11.4785
生地	-11.4785
の行動	-11.4787
直営	-11.4788
スーツ	-11.4788
と違い	-11.4789
マサチューセッツ州	-11.4789
に代表される	-11.4792
高性能	-11.4792
診療	-11.4792
を製造	-11.4793
に関連する	-11.4794
宰相	-11.4794
痛み	-11.4795
ざわ	-11.4795
を行なう	-11.4795
位を記録	-11.4795
志願	-11.4795
ことに成功した	-11.4796
の内部	-11.4798
郵政	-11.4798
同大学	-11.4799
‐	-11.48
負傷した	-11.48
一人で	-11.48
▁pi	-11.4802
の判断	-11.4804
シュル	-11.4806
建物の	-11.4807
みた	-11.4807
該当	-11.4808
に昇進	-11.481
表題曲	-11.4811
の自宅	-11.4812
遺族	-11.4812
大蔵	-11.4812
会い	-11.4813
の大半は	-11.4813
セルフ	-11.4814
form	-11.4816
の三男	-11.4816
によるものである	-11.4817
ヘッ	-11.4817
アルト	-11.482
を担当し	-11.482
年夏に	-11.482
普通列車	-11.482
-21	-11.4821
随	-11.4822
麻雀	-11.4822
1,0	-11.4822
無料で	-11.4823
接続する	-11.4824
狩	-11.4824
勾配	-11.4825
for	-11.4825
型式	-11.4825
爾	-11.4826
の指示	-11.4828
採用されている	-11.4828
深さ	-11.4828
下関	-11.4829
に行われる	-11.4831
gra	-11.4833
タリー	-11.4833
国体	-11.4833
あわせ	-11.4834
強さ	-11.4837
の法則	-11.4837
にとどまった	-11.4837
で活躍	-11.4838
影響を与え	-11.4838
外国語	-11.4838
党員	-11.4839
ボーイズ	-11.4839
の主題歌	-11.484
者もいる	-11.484
本項	-11.4842
産出	-11.4842
ソナタ	-11.4842
これまでに	-11.4842
役人	-11.4843
センチ	-11.4844
▁po	-11.4844
ピオ	-11.4844
wo	-11.4845
外の	-11.4845
履	-11.4845
招	-11.4846
mix	-11.4846
造成	-11.4848
祝日	-11.4848
穀物	-11.485
有力な	-11.485
種族	-11.485
があったため	-11.4851
入りした	-11.4851
に出て	-11.4852
チェンジ	-11.4853
武将	-11.4854
は当時の	-11.4854
社内	-11.4854
▁白	-11.4855
破損	-11.4855
▁この年は	-11.4856
予言	-11.4856
体が	-11.4857
アーキテクチャ	-11.4857
亜種	-11.4857
レンタル移籍	-11.4858
ものとなっている	-11.4859
を書く	-11.4859
年に発表した	-11.4859
立川	-11.486
ロップ	-11.486
ッピング	-11.4861
トーン	-11.4861
!』(	-11.4861
現在に至る	-11.4861
爆破	-11.4861
awa	-11.4862
にならない	-11.4862
初期に	-11.4863
に分類され	-11.4863
アルファ	-11.4863
汎用	-11.4867
好評	-11.4868
摂政	-11.4869
が広く	-11.4869
ヵ月	-11.487
ことについて	-11.4871
予定だった	-11.4872
スプリング	-11.4872
骨格	-11.4873
のうちに	-11.4875
学院大学	-11.4875
ラインナップ	-11.4875
に分け	-11.4876
金剛	-11.4878
逃走	-11.4879
暴走	-11.4879
ys	-11.4879
国家の	-11.488
窮	-11.4881
還	-11.4881
消化	-11.4882
大都市	-11.4882
隙	-11.4882
少なく	-11.4882
選帝侯	-11.4885
読む	-11.4885
と称し	-11.4886
への参加	-11.4887
くま	-11.489
入国	-11.489
に所属した	-11.489
ベースの	-11.4891
を得ている	-11.4892
都市の	-11.4893
愚	-11.4893
▁ロシア	-11.4894
シーズンから	-11.4894
▁字は	-11.4895
じゃない	-11.4895
処置	-11.4896
池袋	-11.4898
ふる	-11.4899
しお	-11.4899
の北側	-11.4899
に出た	-11.4899
単体	-11.49
に出演し	-11.49
読書	-11.4903
位置に	-11.4905
順番	-11.4905
たものである	-11.4905
実に	-11.4906
待機	-11.4907
学士	-11.4907
シュテ	-11.4907
山町	-11.4909
に隣接し	-11.4909
ドウ	-11.4911
重臣	-11.4911
にその	-11.4914
にかかる	-11.4914
が原因で	-11.4915
エコ	-11.4916
▁nhk	-11.4916
ひがし	-11.4916
慮	-11.4917
喜び	-11.4917
鑑定	-11.4918
封鎖	-11.4918
すり	-11.4919
ペンシルベニア州	-11.4923
コーラ	-11.4924
以南	-11.4926
と同じように	-11.4927
が良い	-11.4927
落とし	-11.4928
炭鉱	-11.493
1.8	-11.4931
癒	-11.4931
癖	-11.4932
混雑	-11.4933
カメ	-11.4934
似た	-11.4935
友達	-11.4936
こい	-11.4936
xx	-11.4937
ホーク	-11.4937
▁近年は	-11.494
pd	-11.4941
総長	-11.4941
を採用する	-11.4942
1,2	-11.4943
ウマ	-11.4944
と主張し	-11.4947
ジェイムズ	-11.4949
の始まり	-11.495
揃え	-11.4951
を奪取	-11.4951
起こした	-11.4952
関係を	-11.4954
愛国	-11.4954
大関	-11.4954
舞踊	-11.4956
四日市	-11.4956
に反対する	-11.4956
アルバニア	-11.4958
-』	-11.4961
ture	-11.4962
全体を	-11.4962
1866	-11.4963
ライフル	-11.4964
マンの	-11.4964
月の第	-11.4967
八重	-11.4969
五十	-11.4972
show	-11.4973
講習	-11.4974
日午後	-11.4974
日本の漫画家	-11.4975
することが可能	-11.4975
灰色	-11.4977
途上	-11.4977
の模様	-11.4979
入賞	-11.4981
▁隣接するコムーネは以下の通り	-11.4982
十八	-11.4982
慕容	-11.4982
じんじゃ	-11.4982
その際に	-11.4983
▁アン	-11.4983
ぼく	-11.4983
互	-11.4984
zi	-11.4984
シアトル	-11.4985
ディーン	-11.4985
を支える	-11.4985
セントルイス	-11.4985
常務	-11.4987
1927	-11.499
に就く	-11.499
ローマ帝国	-11.499
をかける	-11.4991
カウンター	-11.4992
白河	-11.4992
伝え	-11.4992
カシ	-11.4993
日本国	-11.4994
斯	-11.4994
方面から	-11.4996
音楽祭	-11.4998
ペドロ	-11.4999
などによる	-11.4999
の聖	-11.5
の支配下	-11.5
50%	-11.5001
city	-11.5001
左岸	-11.5001
長期間	-11.5002
宣教師	-11.5002
から離れ	-11.5002
俳句	-11.5002
残した	-11.5003
集まって	-11.5003
に提出	-11.5004
des	-11.5006
加盟国	-11.5006
の治世	-11.5007
の責任	-11.5008
運行している	-11.5008
出身の元	-11.5009
int	-11.5011
磐	-11.5012
もたらされ	-11.5013
企	-11.5014
船橋	-11.5015
ブレー	-11.5016
出会い	-11.5016
ムーア	-11.5016
京成	-11.5016
が実施され	-11.5017
▁|	-11.5018
失われ	-11.5018
mark	-11.5018
ビオ	-11.5018
ニッポン放送	-11.502
ストレス	-11.502
ウイ	-11.502
アサ	-11.5021
ドラー	-11.5022
ニンテンドー	-11.5023
電磁	-11.5025
の発見	-11.5025
使用していた	-11.5026
たとえ	-11.5026
の為に	-11.5028
低減	-11.5028
配信された	-11.5029
幌	-11.5029
当事者	-11.5029
を背景に	-11.5031
は無かった	-11.5032
ことを示す	-11.5033
ラッセル	-11.5035
累計	-11.5036
報告されている	-11.5036
ニシ	-11.5038
レックス	-11.5038
発車	-11.5038
を廃止し	-11.5039
歓迎	-11.5042
宝塚歌劇団	-11.5042
を読み	-11.5042
に変更され	-11.5043
圧倒的な	-11.5043
レスラー	-11.5045
さが	-11.5045
演算	-11.5046
ではないか	-11.5047
105	-11.5048
と呼ばれるようになった	-11.5048
乗用車	-11.505
大輔	-11.505
日からは	-11.505
の目的	-11.5054
の続編	-11.5054
ウイング	-11.5054
それ以上	-11.5054
usa	-11.5056
ことが可能	-11.5056
で使用された	-11.5056
例もある	-11.5057
イソ	-11.5057
改宗	-11.5057
のメイン	-11.5059
転送	-11.5059
優勢	-11.506
教諭	-11.5061
今日では	-11.5063
伊賀	-11.5064
渋	-11.5064
あきら	-11.5066
的にも	-11.5066
カニ	-11.5067
高島	-11.5068
喧嘩	-11.5069
小田急	-11.5069
日本語版	-11.5069
ぐる	-11.507
撤回	-11.507
などでも	-11.507
ロシア連邦	-11.507
風俗	-11.5072
喜劇	-11.5072
の時に	-11.5074
湘南	-11.5074
江戸時代に	-11.5075
余裕	-11.5075
喰	-11.5077
ラグ	-11.5079
窯	-11.5079
このアルバム	-11.508
島は	-11.508
桑	-11.508
ことはできなかった	-11.5081
フレデリック	-11.5081
活動を開始	-11.5082
を受け入れ	-11.5083
を否定し	-11.5085
歩き	-11.5086
はずの	-11.5089
▁1912	-11.5089
南に	-11.509
に接し	-11.5092
二代目	-11.5092
テレビシリーズ	-11.5093
で生まれ	-11.5093
サント	-11.5093
同局	-11.5094
楽天	-11.5094
team	-11.5095
"、"	-11.5096
変更された	-11.5096
台湾の	-11.5097
▁お	-11.5098
武道	-11.5099
不十分	-11.5099
嚢	-11.51
整備された	-11.5102
かせた	-11.5104
ホーン	-11.5104
選択肢	-11.5105
鋳造	-11.5105
で行われ	-11.5106
触媒	-11.5107
本山	-11.5107
ダウ	-11.5108
本番組	-11.5108
峯	-11.5108
との間の	-11.5112
島で	-11.5113
につれて	-11.5113
奇跡	-11.5113
本機	-11.5113
位と	-11.5114
閑	-11.5114
一宮	-11.5115
仕上げ	-11.5115
作られている	-11.5116
ツキ	-11.5117
決勝では	-11.5118
mhz	-11.5119
ダラ	-11.512
西は	-11.512
kin	-11.5122
遅延	-11.5122
ics	-11.5122
場合でも	-11.5122
▁ゆう	-11.5124
ひこ	-11.5124
首席	-11.5125
馬身	-11.5125
くない	-11.5125
文久	-11.5127
震災	-11.5127
松浦	-11.5128
納め	-11.5129
シリーズは	-11.5132
オブジェクト	-11.5133
塗り	-11.5134
高等学校を経て	-11.5135
ホラー	-11.5135
スクエア	-11.5136
lect	-11.5137
ess	-11.5137
マイクロソフト	-11.5137
たった	-11.5137
日本国外	-11.5137
を止め	-11.5137
の実施	-11.5138
年に設立された	-11.5139
eg	-11.5139
▁sh	-11.5142
事件で	-11.5142
西部の	-11.5142
イグ	-11.5143
フォーラム	-11.5147
駄	-11.5147
sky	-11.5147
シュト	-11.5149
ボスニア	-11.5149
かれる	-11.5149
ref	-11.515
ッサー	-11.5152
造形	-11.5153
急性	-11.5154
民放	-11.5154
バブル	-11.5155
by	-11.5156
日本大学	-11.5156
ビート	-11.5157
1850	-11.5158
収束	-11.516
ホウ	-11.5161
ければ	-11.5161
ノーベル	-11.5162
増殖	-11.5163
グラント	-11.5164
ham	-11.5164
中学校に通う場合	-11.5165
に移転した	-11.5165
的存在	-11.5167
フロア	-11.5167
が進んだ	-11.5168
湿地	-11.5168
源流	-11.5169
ませ	-11.5169
の発行	-11.517
のトップ	-11.517
漂	-11.5172
に行き	-11.5172
野町	-11.5173
cor	-11.5173
タク	-11.5175
宝石	-11.5175
に昇格した	-11.5175
ってしまった	-11.5175
▁プロ	-11.5177
上にある	-11.5178
徴兵	-11.5178
転落	-11.5178
器具	-11.5178
に見舞われ	-11.5179
個人の	-11.518
企業が	-11.518
るための	-11.5182
公使	-11.5182
ることなく	-11.5182
戦時中	-11.5183
多項式	-11.5184
0°	-11.5184
レック	-11.5184
傾向がある	-11.5185
細かい	-11.5185
と推定されている	-11.5185
マイアミ	-11.5185
ログ	-11.5185
追悼	-11.5186
危	-11.5186
南下	-11.5187
ライアン	-11.5187
採択	-11.5188
償	-11.5188
原爆	-11.5189
同一の	-11.5189
誘致	-11.519
東武	-11.5191
平原	-11.5192
に囲まれ	-11.5193
けば	-11.5194
野球部	-11.5194
japan	-11.5194
トルク	-11.5196
霞	-11.5196
屋外	-11.5198
三田	-11.5199
生体	-11.52
を利用し	-11.52
ドラマー	-11.52
1923	-11.52
石を	-11.5201
せつ	-11.5201
系譜	-11.5201
説明する	-11.5201
ラテン文字	-11.5202
タービン	-11.5202
カタログ	-11.5203
の持つ	-11.5203
入植	-11.5204
梅田	-11.5205
に始まる	-11.5206
避	-11.5206
free	-11.5207
悩	-11.5207
▁同じく	-11.5207
造られた	-11.5207
町田	-11.5208
川は	-11.5209
を想定し	-11.5211
ランキングで	-11.5211
気圧	-11.5211
山梨	-11.5212
に専念	-11.5212
に放送された	-11.5213
を通過し	-11.5214
バルト	-11.5214
青色	-11.5214
精神的	-11.5216
の町名	-11.5216
融資	-11.5217
を発し	-11.5217
右岸	-11.5218
半導体	-11.5219
市から	-11.522
王家	-11.522
押さえ	-11.522
引退後	-11.5221
ニュータウン	-11.5222
の先端	-11.5222
と表記される	-11.5223
の必要性	-11.5224
を完全に	-11.5224
艦隊の	-11.5224
イオ	-11.5224
左手	-11.5224
に留まり	-11.5225
系統の	-11.5225
ルネサンス	-11.5226
アムステルダム	-11.5226
退学	-11.5226
を超えて	-11.5226
巴	-11.5228
集約	-11.5229
、1935	-11.523
じた	-11.523
コラ	-11.523
廣	-11.523
終了後に	-11.523
守り	-11.523
凍結	-11.523
感染症	-11.5232
に際しては	-11.5235
ブレン	-11.5235
が導入され	-11.5236
1925	-11.5237
が置かれた	-11.5237
遠藤	-11.5239
の世帯数と人口は以下の通りである	-11.5243
に使用された	-11.5243
シャトル	-11.5244
▁以下に	-11.5244
勝った	-11.5245
ソフトバンク	-11.5246
白石	-11.5247
プライベート	-11.5247
釈迦	-11.5247
から東	-11.5248
マニラ	-11.5249
ることもある	-11.5249
つぶ	-11.525
できるようになった	-11.525
中国共産党	-11.5251
ローマの	-11.5251
設置されている	-11.5251
▁最終	-11.5252
頁	-11.5253
うこと	-11.5254
有限会社	-11.5255
発現	-11.5257
されたものである	-11.5257
▁そこに	-11.5258
抽象	-11.5258
仁親王	-11.5259
中枢	-11.526
転写	-11.526
交差	-11.5261
に発生した	-11.5261
ストローク	-11.5262
魯	-11.5262
尾張	-11.5262
普	-11.5263
発の	-11.5263
同時期	-11.5265
をなす	-11.5267
行われており	-11.5267
が使用されている	-11.5267
ッケン	-11.5268
アシュ	-11.5272
を見つけ	-11.5274
ささ	-11.5275
どおり	-11.5275
メイド	-11.5276
鋳	-11.5276
特攻	-11.5276
古代の	-11.5276
吊り	-11.5276
project	-11.5277
という意味で	-11.5277
の寺院	-11.5278
、1933	-11.528
を行わ	-11.5281
ニックネーム	-11.5281
一度も	-11.5282
東部の	-11.5282
債	-11.5283
と共同で	-11.5284
殿堂入り	-11.5285
を演じる	-11.5286
西欧	-11.5287
促	-11.5288
にのみ	-11.5288
を振り	-11.5289
デザインは	-11.5289
封入	-11.5289
展開する	-11.529
と並ぶ	-11.5291
組成	-11.5291
▁米国	-11.5291
ホルン	-11.5292
エレクトリック	-11.5292
ome	-11.5293
mal	-11.5294
にともない	-11.5294
構造物	-11.5295
直流	-11.5295
ラテン	-11.5296
npo	-11.5296
リフ	-11.5296
記した	-11.5297
それ以外	-11.5298
幕下	-11.5299
地である	-11.5299
記録されている	-11.5301
ぱ	-11.5303
nec	-11.5303
の確保	-11.5304
虐待	-11.5304
エーカー	-11.5305
路線が	-11.5306
スロバキア	-11.5306
を持っており	-11.5308
北九州	-11.5309
スロット	-11.5309
ざき	-11.5309
ビング	-11.5309
ピク	-11.531
平地	-11.531
アンドリュー	-11.5311
定め	-11.5311
を食べ	-11.5311
ヨーゼフ	-11.5312
演出家	-11.5312
旋律	-11.5314
ヨシ	-11.5315
一般化	-11.5315
子爵	-11.5317
book	-11.5317
鳥居	-11.5317
を寄せ	-11.5318
航空隊	-11.532
輸送船	-11.5321
となること	-11.5324
描く	-11.5324
分野の	-11.5325
跡地に	-11.5325
マナ	-11.5327
拍	-11.5327
ドナルド	-11.5327
20%	-11.5328
クモ	-11.5328
富田	-11.533
実体	-11.533
バーデン	-11.5331
顔を	-11.5332
予定されていた	-11.5332
ホスト	-11.5332
とされるが	-11.5332
base	-11.5333
の間では	-11.5333
島田	-11.5333
三角形	-11.5333
ある日	-11.5334
博覧会	-11.5334
鉄道路線	-11.5336
を飾った	-11.5337
札幌市	-11.5338
赤坂	-11.5339
に合格	-11.5339
模	-11.5339
ピル	-11.534
ラング	-11.5341
を破って	-11.5341
侯爵	-11.5342
の移動	-11.5344
の精神	-11.5345
を入れる	-11.5346
るのは	-11.5346
シリ	-11.5346
マネ	-11.5347
紋章	-11.5347
偉	-11.5347
終了する	-11.5348
の名称で	-11.535
シリーズでは	-11.5351
日本共産党	-11.5352
▁ja	-11.5352
から第	-11.5352
イギリス人	-11.5353
田舎	-11.5353
目黒	-11.5353
о	-11.5353
知られており	-11.5354
大阪府大阪市	-11.5355
車両が	-11.5356
』・『	-11.5358
割り当てられ	-11.5359
病死	-11.536
対応する	-11.536
互換性	-11.5361
中央に	-11.5361
シム	-11.5362
歴史的な	-11.5363
hc	-11.5364
量を	-11.5364
などである	-11.5364
が入った	-11.5365
インテル	-11.5366
(2009	-11.5367
局所	-11.5367
ついて	-11.5367
ory	-11.5369
と称して	-11.5369
変異	-11.537
年の間	-11.537
モントリオール	-11.5371
長時間	-11.5371
医科大学	-11.5371
水産	-11.5372
ash	-11.5372
不詳	-11.5373
盛んに	-11.5374
ヴル	-11.5376
簡単な	-11.5377
酒造	-11.5377
にも参加	-11.5377
エンジンを	-11.5377
選挙では	-11.5378
を実施する	-11.5379
(2007	-11.5379
戦果	-11.5379
受け継がれ	-11.5379
められ	-11.5379
を模した	-11.538
数回	-11.5381
not	-11.5381
解説する	-11.5382
戸田	-11.5382
石原	-11.5382
ジョニー	-11.5384
の為	-11.5385
ニウス	-11.5385
ろうと	-11.5385
警官	-11.5387
▁tra	-11.5388
ことだった	-11.5388
集結	-11.5388
一般県道	-11.5389
カンボジア	-11.539
万部	-11.5391
する者	-11.5391
はっきり	-11.5392
のほとんどは	-11.5392
駐在	-11.5392
を任され	-11.5392
に興味	-11.5392
生育	-11.5393
安藤	-11.5394
倉敷	-11.5394
しら	-11.5396
リッ	-11.5397
格納	-11.5397
を拒否した	-11.5398
エチオピア	-11.5398
三大	-11.5399
ration	-11.5399
木曜	-11.54
ユニフォーム	-11.5401
手段として	-11.5402
さなかった	-11.5402
仕掛け	-11.5403
▁これに	-11.5404
続行	-11.5405
ケイン	-11.5405
募	-11.5407
負荷	-11.5408
同年に	-11.5409
政権の	-11.5409
グン	-11.541
ニズム	-11.541
450	-11.5411
rac	-11.5411
に限り	-11.5411
の推薦	-11.5412
正式名称	-11.5412
副作用	-11.5413
活動家	-11.5415
ミア	-11.5416
を実施し	-11.5418
ヶ月間	-11.542
が生まれ	-11.542
蒼	-11.542
されることが多い	-11.5421
とも言える	-11.5422
ルドルフ	-11.5423
スタメン	-11.5424
にもなった	-11.5424
じて	-11.5425
に任命	-11.5425
家を	-11.5426
記載する	-11.5427
6,000	-11.5427
末に	-11.5427
ジョイ	-11.5428
エルサレム	-11.5429
帖	-11.5429
発電機	-11.5429
部員	-11.543
!!」	-11.5431
と異なる	-11.5432
sv	-11.5432
▁1910	-11.5432
を避け	-11.5432
藍	-11.5433
泳	-11.5434
明日	-11.5434
▁駅番号は	-11.5435
ブリン	-11.5436
ラーズ	-11.5437
委	-11.5437
を結んだ	-11.5437
同志	-11.5438
、1932	-11.5438
の仲間	-11.5439
ire	-11.544
アイスランド	-11.5441
幹線	-11.5441
文部省	-11.5442
を差し	-11.5442
失敗した	-11.5442
要員	-11.5442
が発見され	-11.5442
聖人	-11.5443
ビック	-11.5443
は以下のとおり	-11.5444
藻	-11.5444
ミドル級	-11.5444
に適	-11.5445
ペース	-11.5445
クライアント	-11.5446
kt	-11.5447
握	-11.5448
萬	-11.5448
にあたった	-11.5449
テュ	-11.5449
(2006	-11.5449
ada	-11.545
に統合され	-11.5451
尽力	-11.5451
ゅ	-11.5451
で発売された	-11.5452
wii	-11.5452
傘	-11.5453
クルーズ	-11.5454
タッグ王座	-11.5454
ヴォーカル	-11.5457
が発足	-11.5457
スパルタ	-11.5457
構え	-11.5458
世界各国	-11.5459
粘	-11.5459
与え	-11.546
ゥ	-11.5461
してしまい	-11.5462
っぽ	-11.5465
ブラジルの	-11.5466
対馬	-11.5467
火器	-11.5467
フランクリン	-11.5467
トイ	-11.5468
会社が	-11.5469
社から	-11.5472
die	-11.5474
お前	-11.5475
▁しかしこの	-11.5475
寅	-11.5476
塩基	-11.5477
▁100	-11.5478
▁ac	-11.5478
出身地	-11.5479
月曜日	-11.548
船が	-11.548
上では	-11.548
荒廃	-11.548
路面電車	-11.5481
とされており	-11.5482
ラード	-11.5484
ティーン	-11.5484
▁des	-11.5484
育つ	-11.5484
撫	-11.5485
イヴ	-11.5485
だし	-11.5486
た際に	-11.5486
漏れ	-11.5486
バグ	-11.5488
基本的には	-11.5489
を守るため	-11.549
リーフ	-11.5492
チーズ	-11.5493
意欲	-11.5493
レコード会社	-11.5494
を当て	-11.5494
荘園	-11.5494
クロン	-11.5495
▁元々	-11.5496
古来	-11.5496
破綻	-11.5498
クジラ	-11.5499
管理者	-11.5499
を展開する	-11.5501
止ま	-11.5502
始発	-11.5503
に行われた	-11.5504
されたのは	-11.5504
本多	-11.5504
ひさ	-11.5506
を帯び	-11.5507
たくさん	-11.5507
109	-11.5508
形が	-11.5509
膨大な	-11.5511
ギャグ	-11.5513
封印	-11.5513
スティー	-11.5513
芸能人	-11.5514
対潜	-11.5515
進められ	-11.5517
故に	-11.5517
を提供し	-11.5517
召集	-11.5517
ダンジョン	-11.5518
の末に	-11.5518
に至って	-11.5519
親会社	-11.5519
積極的な	-11.552
に着手	-11.552
に進み	-11.5521
音が	-11.5522
順調に	-11.5522
ura	-11.5522
川に	-11.5522
ンゲン	-11.5523
回線	-11.5523
シンボル	-11.5523
使用可能	-11.5523
いっ	-11.5523
考えた	-11.5524
東ドイツ	-11.5524
拡散	-11.5524
失脚	-11.5526
取り入れ	-11.5527
デヴィッド	-11.5528
作成された	-11.553
を訪ね	-11.553
に到着	-11.5531
構造は	-11.5531
テオ	-11.5532
スタイン	-11.5532
トレイン	-11.5535
捕食	-11.5535
1926	-11.5536
最速	-11.5536
ワールドシリーズ	-11.5537
に設置されている	-11.5537
を占め	-11.5537
大半が	-11.5538
投入された	-11.5538
で死去した	-11.5539
信託	-11.5539
抱え	-11.554
の改善	-11.554
大阪市立	-11.5541
の低い	-11.5541
歴史上	-11.5544
オハイオ州	-11.5545
川上	-11.5545
佐伯	-11.5545
任官	-11.5546
を選んだ	-11.5547
バレ	-11.5548
北条氏	-11.5549
励	-11.5549
ax	-11.5551
内藤	-11.5551
運行する	-11.5552
の指揮下	-11.5554
ができた	-11.5554
見学	-11.5556
撮影された	-11.5556
体長	-11.5556
例がある	-11.5558
衰え	-11.5559
歳未満	-11.5559
巡礼	-11.556
することができた	-11.556
伸びる	-11.5561
~	-11.5561
世界初の	-11.5561
疑惑	-11.5561
カルロ	-11.5561
越え	-11.5561
vin	-11.5564
香り	-11.5564
の姓	-11.5565
熱心	-11.5565
亡くなる	-11.5566
享保	-11.5566
中原	-11.5566
御用	-11.5566
やる	-11.5566
迎えた	-11.5568
が導入された	-11.5568
近縁	-11.5569
ケルン	-11.5569
古巣	-11.5571
小児	-11.5571
遺物	-11.5571
破壊され	-11.5572
チェスター	-11.5574
の葉	-11.5574
初年度	-11.5575
リントン	-11.5576
日本の実業家	-11.5576
命を	-11.5578
カルチャー	-11.5579
グローブ	-11.558
考えられ	-11.558
舞鶴	-11.5581
▁父親は	-11.5581
が担当した	-11.5581
山麓	-11.5582
維新	-11.5583
浴び	-11.5583
現地の	-11.5583
を破壊し	-11.5583
揺れ	-11.5584
依然として	-11.5584
を試みた	-11.5585
1848	-11.5586
オーク	-11.5586
退社	-11.5587
を断念	-11.5587
即位した	-11.5589
db	-11.559
叩	-11.559
準々決勝	-11.559
下院議員	-11.559
誰か	-11.5591
公開されている	-11.5591
▁この後	-11.5591
野球場	-11.5591
年前の	-11.5591
進路	-11.5592
痕跡	-11.5592
▁兄	-11.5594
期限付き移籍	-11.5594
アレクサンダー	-11.5594
と指摘している	-11.5594
▁一般的に	-11.5595
漫画作品	-11.5596
担当者	-11.5596
サポーター	-11.5598
を受章	-11.56
に合わせ	-11.5601
単発	-11.5601
語は	-11.5602
オウ	-11.5602
キングス	-11.5602
会派	-11.5603
、“	-11.5604
らによって	-11.5605
理由から	-11.5607
日本において	-11.5609
ようだ	-11.5609
腹部	-11.5609
と第	-11.5611
※	-11.5611
立って	-11.5611
放った	-11.5611
を建設し	-11.5612
sis	-11.5612
嘘	-11.5614
バラエティ	-11.5614
したことにより	-11.5614
▁all	-11.5615
制圧	-11.5615
ori	-11.5615
内田	-11.5616
▁同日	-11.5616
トキ	-11.5616
街の	-11.5617
スティーブン	-11.5617
play	-11.5619
てきている	-11.5619
強盗	-11.562
学生時代	-11.5621
最盛期	-11.5622
national	-11.5622
アラビア	-11.5622
遮断	-11.5623
から始まる	-11.5623
と合併し	-11.5624
平定	-11.5625
テレビジョン	-11.5625
▁第二次世界大戦後	-11.5626
が使われている	-11.5626
工科大学	-11.5626
することなく	-11.5627
争う	-11.5627
に襲われ	-11.5627
駅間の	-11.5628
のみであった	-11.5629
日本書紀	-11.5629
アーツ	-11.5629
▁new	-11.5631
改名	-11.5633
法則	-11.5633
記されている	-11.5633
で生まれる	-11.5638
ハイブリッド	-11.5638
を積極的に	-11.5638
立憲	-11.5639
ホームズ	-11.564
歴史的に	-11.564
アシ	-11.564
実質的な	-11.5641
に分かれる	-11.5641
自由な	-11.5643
塩化	-11.5644
系列の	-11.5644
されたり	-11.5645
ami	-11.5645
られなかった	-11.5645
イザー	-11.5645
ポロ	-11.5646
パラメータ	-11.5647
無償	-11.5647
の大部分は	-11.5648
台北	-11.5649
幼い	-11.5649
1・2	-11.5649
韻	-11.565
緑の	-11.565
を開発した	-11.565
big	-11.5652
電機	-11.5653
ウェイン	-11.5653
center	-11.5654
▁ga	-11.5654
胞	-11.5655
がち	-11.5655
を描き	-11.5655
に組み込まれ	-11.5658
柔軟	-11.566
1.4	-11.5661
ッセ	-11.5661
しよう	-11.5664
つる	-11.5666
世界各地	-11.5666
殉	-11.5666
つめ	-11.5666
として扱われ	-11.5667
メーカーの	-11.5667
ダイヤ改正	-11.5668
名目	-11.5669
稲荷	-11.567
研究センター	-11.567
5.5	-11.567
日露戦争	-11.5671
に送り	-11.5671
レポート	-11.5672
障	-11.5672
未だ	-11.5673
、1934	-11.5674
を導入した	-11.5675
game	-11.5677
鴻	-11.5677
が採用され	-11.5678
を記録する	-11.5679
てきたが	-11.5679
一橋大学	-11.568
氏と	-11.5681
男は	-11.5681
▁""	-11.5682
改変	-11.5682
参議院議員	-11.5683
ben	-11.5684
岩手	-11.5684
出演していた	-11.5685
本文	-11.5685
ようになっていた	-11.5685
射殺	-11.5685
並行	-11.5688
ともいえる	-11.5689
埋	-11.569
の形態	-11.569
をあげ	-11.5691
の対	-11.5693
成り	-11.5694
に属した	-11.5694
cur	-11.5695
月時点で	-11.5695
(2008	-11.5696
を脱	-11.5697
サンクトペテルブルク	-11.5697
フス	-11.5698
ないよう	-11.5701
モト	-11.5704
主人	-11.5704
コパ	-11.5705
暴行	-11.5705
プロペラ	-11.5707
ヴァルト	-11.5707
周辺に	-11.5707
次官	-11.5708
肯定	-11.5708
単式ホーム	-11.5709
ジオン	-11.5709
time	-11.571
去った	-11.571
に従軍	-11.5711
鼓	-11.5712
として用いられる	-11.5713
無罪	-11.5713
▁can	-11.5717
意向	-11.5717
幸せ	-11.5717
本堂	-11.5718
ぐち	-11.5719
に相当	-11.5719
は本作	-11.572
金メダル	-11.5721
曖昧	-11.5722
を刊行	-11.5722
と考えられ	-11.5723
を購入し	-11.5724
和歌	-11.5725
受託	-11.5725
分断	-11.5725
を前に	-11.5726
ハワード	-11.5728
ball	-11.5728
倫	-11.5729
ik	-11.573
既存	-11.573
2.7	-11.5731
▁ra	-11.5731
が約	-11.5731
がみ	-11.5731
幻想	-11.5733
になってしまう	-11.5733
東北地方	-11.5734
iss	-11.5735
哺乳類	-11.5735
の手紙	-11.5736
はやや	-11.5736
の性格	-11.5737
協奏曲	-11.5737
文化放送	-11.5737
ヒュ	-11.5737
厚生	-11.5738
扶	-11.5739
ney	-11.574
慣れ	-11.5741
年に発売された	-11.5742
西区	-11.5745
祈り	-11.5745
石田	-11.5746
dan	-11.5746
チオ	-11.5746
メディ	-11.5746
試合出場	-11.5748
加算	-11.5748
家族の	-11.5749
最新の	-11.5749
通じる	-11.5749
認められている	-11.5749
が原因	-11.5752
郊外の	-11.5753
度目	-11.5753
親交	-11.5755
ネック	-11.5756
けて	-11.5756
へ移	-11.5757
債権	-11.5757
と名付けられた	-11.5757
迫る	-11.5757
貰	-11.5757
駐留	-11.5759
はわずか	-11.576
物である	-11.576
万ドルの	-11.5761
栃木	-11.5761
が低く	-11.5761
メイト	-11.5763
持っている	-11.5764
団体である	-11.5764
pm	-11.5765
行って	-11.5765
歳没	-11.5766
のうちの	-11.5766
カンファレンス	-11.5766
▁it	-11.5766
除籍	-11.5767
gh	-11.5768
(=	-11.5769
原子炉	-11.5769
bro	-11.5771
議会の	-11.5771
研究室	-11.5771
大敗	-11.5772
みたい	-11.5772
地質	-11.5773
を終了した	-11.5774
など多くの	-11.5774
パト	-11.5776
の完成	-11.5777
シアン	-11.5777
奥州	-11.5777
知られた	-11.5777
音を	-11.5777
本郷	-11.5778
末期の	-11.5778
radio	-11.5779
市場で	-11.5779
仮面	-11.5779
放送され	-11.5781
学派	-11.5781
頸	-11.5782
水が	-11.5783
支払い	-11.5783
トレー	-11.5783
尚書	-11.5783
支え	-11.5784
植え	-11.5785
で演奏	-11.5786
の形で	-11.5787
方面の	-11.5787
バスターミナル	-11.5788
藤沢	-11.579
停車駅	-11.579
男の	-11.579
背後	-11.5791
らぬ	-11.5792
複製	-11.5792
フランシスコ	-11.5793
まんが	-11.5793
堤防	-11.5795
出身のプロ野球選手	-11.5795
に含まれ	-11.5797
兵を	-11.5797
を繰り返す	-11.5798
2-1	-11.5798
天明	-11.5798
に抜擢され	-11.5798
時まで	-11.5799
風に	-11.5799
かき	-11.5799
ポス	-11.58
年公開の	-11.5802
に携わる	-11.5802
分配	-11.5805
知り合い	-11.5805
▁中央	-11.5806
厚生労働省	-11.5807
135	-11.5807
を付けた	-11.5807
はるかに	-11.5808
ッラ	-11.5808
民兵	-11.5809
されるまで	-11.5809
eng	-11.5809
河野	-11.5811
リボン	-11.5811
詳しい	-11.5811
いかなる	-11.5813
処刑された	-11.5813
タイアップ	-11.5815
トンは	-11.5816
確か	-11.5817
降水量	-11.5818
シオン	-11.5818
休刊	-11.5819
者も	-11.5819
好成績	-11.5819
亜科	-11.5819
▁ここに	-11.5821
の性能	-11.5821
フォト	-11.5821
台数	-11.5821
人だった	-11.5823
▁os	-11.5824
ins	-11.5825
蔵書	-11.5825
長老	-11.5825
頂上	-11.5829
提唱した	-11.583
ッティング	-11.583
問い	-11.5832
年代後半から	-11.5832
ンダー	-11.5833
美子	-11.5833
慕	-11.5833
私鉄	-11.5834
アイヌ	-11.5836
あつ	-11.5836
をやめ	-11.5837
擬	-11.5837
マーン	-11.5838
を行うため	-11.5839
きわめて	-11.584
を除いた	-11.584
立案	-11.5841
居城	-11.5841
値を	-11.5841
据え	-11.5841
警報	-11.5841
生殖	-11.5842
穀	-11.5843
退却	-11.5843
本人が	-11.5843
▁女性	-11.5844
▁part	-11.5844
ウェルター級	-11.5845
平坦	-11.5845
真理	-11.5845
開かれた	-11.5846
ple	-11.5846
苦労	-11.5846
展望	-11.5847
に分けて	-11.5847
豊橋	-11.5848
dos	-11.585
▁イタリア	-11.5851
sim	-11.5851
出来た	-11.5851
源氏物語	-11.5853
通報	-11.5854
自称	-11.5854
が大幅に	-11.5854
サッカー部	-11.5854
桜井	-11.5855
の軍勢	-11.5856
の一人である	-11.5856
久留米	-11.5858
ベネズエラ	-11.5858
▁デビュー	-11.5858
こんな	-11.5859
工芸	-11.5859
がこれ	-11.5859
ものとなった	-11.586
敗れた	-11.5861
貨物列車	-11.5861
与える	-11.5862
広まった	-11.5862
フラー	-11.5862
本人の	-11.5863
吹き替え	-11.5864
ヤマハ	-11.5864
が認められる	-11.5866
調子	-11.5867
された後	-11.5869
初日	-11.587
月末に	-11.5871
前橋	-11.5871
フアン	-11.5871
アンダーソン	-11.5871
帰る	-11.5872
の主人公	-11.5872
つくば	-11.5872
示された	-11.5873
豊臣秀吉	-11.5874
じゅ	-11.5875
たことから	-11.5875
キッ	-11.5875
変え	-11.5876
〔	-11.5876
で優勝した	-11.5877
採集	-11.5877
宗教的	-11.5878
不調	-11.5878
城は	-11.588
偶	-11.588
に入れ	-11.5881
〕	-11.5881
道の駅	-11.5881
思う	-11.5881
今井	-11.5882
奨	-11.5883
ガウ	-11.5884
:55	-11.5884
意味合い	-11.5887
が持つ	-11.5888
じり	-11.5888
、1931	-11.5889
常時	-11.5889
の発表	-11.589
適用される	-11.5891
の意思	-11.5894
グルジア	-11.5895
aki	-11.5895
写真を	-11.5897
tom	-11.5897
ナール	-11.5897
ペトロ	-11.59
イリ	-11.59
として知られ	-11.5901
が必要な	-11.5902
、1928	-11.5902
直結	-11.5903
拠点として	-11.5904
てゆく	-11.5904
領内	-11.5904
▁森	-11.5905
、1929	-11.5905
餅	-11.5906
小学校の	-11.5907
染色体	-11.5908
家具	-11.5909
施設は	-11.5909
リアルタイム	-11.5909
工房	-11.5911
商事	-11.5911
資材	-11.5912
小銃	-11.5913
ヘア	-11.5914
hl	-11.5914
濱	-11.5915
デア	-11.5916
突起	-11.5916
は自分の	-11.5916
タイガース	-11.5917
宮本	-11.5917
▁具体的には	-11.5919
参謀長	-11.5919
アクセント	-11.592
ロル	-11.5922
直す	-11.5923
ナイフ	-11.5923
世紀前半	-11.5924
日本の女優	-11.5925
人や	-11.5926
麻呂	-11.5926
が主催する	-11.5927
pla	-11.5927
日本語の	-11.5927
sho	-11.5928
に在籍	-11.5929
を増やし	-11.593
名である	-11.5931
王族	-11.5931
況	-11.5932
gy	-11.5932
を担当していた	-11.5932
当社	-11.5934
幼虫	-11.5934
ator	-11.5934
出陣	-11.5934
曳	-11.5935
ジャイアンツ	-11.5935
も多数	-11.5937
フスキー	-11.5937
cas	-11.5937
副社長	-11.5938
アビ	-11.594
公卿	-11.5941
を開く	-11.5941
だけは	-11.5941
pal	-11.5942
市議会	-11.5942
シリンダー	-11.5942
▁放送時間は	-11.5943
難波	-11.5944
陸地	-11.5944
アダルト	-11.5945
ビルマ	-11.5945
としても活動	-11.5946
の提案	-11.5946
テリー	-11.5946
剣道	-11.5947
検察	-11.5947
好意	-11.5947
町駅	-11.5947
十字軍	-11.5947
トロイ	-11.5948
機銃	-11.5949
を借り	-11.5949
1.1	-11.595
執政官	-11.5951
プレミア	-11.5951
島町	-11.5951
hal	-11.5951
群れ	-11.5951
和名	-11.5953
▁実際に	-11.5955
ウッ	-11.5958
ios	-11.5958
を引き継いだ	-11.5959
の西側	-11.5959
号が	-11.5959
気体	-11.5959
上部に	-11.596
火薬	-11.5961
無所属	-11.5961
以北	-11.5962
者や	-11.5963
の編集	-11.5963
女優の	-11.5963
▁gu	-11.5964
地域である	-11.5964
000	-11.5965
シーズン終了後	-11.5965
そうな	-11.5965
けんりつ	-11.5968
となっていたが	-11.5968
凝	-11.5968
総統	-11.5969
cv	-11.597
西岸	-11.597
▁air	-11.5971
プロトコル	-11.5971
派遣した	-11.5972
大森	-11.5973
の反乱	-11.5973
チョン	-11.5973
ハット	-11.5975
▁大正	-11.5976
くなった	-11.5977
全体に	-11.5979
3.0	-11.598
レギュラー出演	-11.598
と出会い	-11.598
卑	-11.598
に分けられ	-11.5981
されるため	-11.5981
グラフィ	-11.5982
ことが判明した	-11.5982
判定勝ち	-11.5982
授け	-11.5982
董	-11.5983
近似	-11.5983
を望む	-11.5983
系電車	-11.5984
の重要性	-11.5984
新曲	-11.5985
を指導	-11.5985
浜田	-11.5985
刈	-11.5986
に進出した	-11.5987
ったもの	-11.5987
たところ	-11.5989
勧	-11.5989
取り付けられ	-11.5991
働	-11.5991
ママ	-11.5991
製造業	-11.5991
留学生	-11.5992
罪で	-11.5992
機雷	-11.5993
退官	-11.5994
に沿った	-11.5994
行為を	-11.5995
召	-11.5995
の訓練	-11.5996
自分は	-11.5997
ネパール	-11.6
隋	-11.6001
掲示板	-11.6002
ディック	-11.6003
が置かれ	-11.6003
問われ	-11.6004
外科	-11.6004
院長	-11.6004
調和	-11.6005
本書	-11.6005
休暇	-11.6006
ゴシック	-11.6007
話が	-11.6008
に加わり	-11.6008
たとき	-11.6008
ていたという	-11.6009
チカ	-11.6009
南北朝時代	-11.601
角川	-11.6011
原作者	-11.6012
の中で最も	-11.6014
代表者	-11.6014
定めた	-11.6015
広さ	-11.6016
焦点	-11.6016
シールド	-11.6016
に反対し	-11.6016
発掘調査	-11.6016
激減	-11.6017
pon	-11.6017
国々	-11.6018
の東側	-11.6018
淀	-11.6018
其	-11.6019
取り上げられ	-11.6022
不法	-11.6022
フック	-11.6023
ミラン	-11.6024
ロビン	-11.6024
開始した	-11.6025
程度で	-11.6025
後漢	-11.6026
とか	-11.6027
へん	-11.6027
階の	-11.6027
についた	-11.6027
放送した	-11.6027
縛	-11.6028
翅	-11.6028
を決定	-11.6028
終え	-11.603
鶴見	-11.603
ように見える	-11.603
として登場	-11.6031
拍子	-11.6032
▁詳細は	-11.6032
ミックス	-11.6033
(1)	-11.6034
元和	-11.6034
基底	-11.6035
エンターテイメント	-11.6035
総面積	-11.6036
対話	-11.6036
白山	-11.6037
トミー	-11.6037
▁近年の	-11.6038
合わせた	-11.6038
と推定される	-11.604
真の	-11.6041
ルーツ	-11.6044
消失	-11.6044
オッ	-11.6044
悩み	-11.6044
▁pri	-11.6045
old	-11.6045
ish	-11.6045
収録された	-11.6046
もこれ	-11.6046
カルタゴ	-11.6047
吹奏楽	-11.6047
を教え	-11.6047
フェニックス	-11.6048
髄	-11.6048
引き受け	-11.6049
八郎	-11.6049
対称	-11.605
gal	-11.605
対外	-11.6051
荻	-11.6054
ことなどから	-11.6054
秋に	-11.6057
敗と	-11.6057
前部	-11.6057
今も	-11.6057
秋山	-11.6058
▁star	-11.6058
国有	-11.6058
」()	-11.6059
城壁	-11.606
の追加	-11.606
なければならなかった	-11.606
ローム	-11.6061
豊臣	-11.6062
では第	-11.6062
ギャング	-11.6062
の低下	-11.6064
cam	-11.6065
納入	-11.6065
ことに由来する	-11.6065
パチンコ	-11.6067
カラオケ	-11.6067
ーニャ	-11.6068
ao	-11.6069
ky	-11.607
のテーマ	-11.6071
狙撃	-11.6074
改められ	-11.6075
持っていた	-11.6077
ceo	-11.6077
vis	-11.6077
織田信長	-11.6078
うえで	-11.6078
ケリー	-11.6078
本家	-11.6079
近辺	-11.6079
車として	-11.608
バター	-11.6081
に輝いた	-11.6082
大日本	-11.6083
▁time	-11.6083
が再び	-11.6083
鈴鹿	-11.6084
みどり	-11.6085
食材	-11.6086
地方裁判所	-11.6086
せば	-11.6087
ハンブルク	-11.6087
nic	-11.6087
喫煙	-11.6088
改題	-11.609
イリノイ州	-11.6092
が開かれ	-11.6093
と呼ばれることもある	-11.6093
校区	-11.6094
開発者	-11.6094
現在地	-11.6095
准教授	-11.6095
ミラ	-11.6096
月に行われた	-11.6096
参拝	-11.6098
民謡	-11.6098
みると	-11.6099
格子	-11.6099
に属していた	-11.6099
時間に	-11.61
ミック	-11.61
勅令	-11.6101
わかる	-11.6102
本願寺	-11.6102
▁神	-11.6103
湖の	-11.6104
先進	-11.6104
遠い	-11.6104
折り返し	-11.6105
1868	-11.6105
忘れ	-11.6105
ヴィス	-11.6106
の思想	-11.6106
民俗	-11.6106
客員教授	-11.6107
タイガー	-11.6108
し始めた	-11.6109
自分を	-11.6109
[...]
